<unk>	0
<s>	0
</s>	0
▁t	-0
he	-1
▁a	-2
▁.	-3
in	-4
▁s	-5
re	-6
▁w	-7
▁the	-8
ou	-9
▁i	-10
on	-11
▁b	-12
▁m	-13
▁c	-14
ha	-15
er	-16
▁n	-17
▁d	-18
ing	-19
▁,	-20
▁f	-21
▁'	-22
en	-23
▁o	-24
ed	-25
▁y	-26
▁p	-27
ll	-28
or	-29
es	-30
▁to	-31
▁you	-32
is	-33
▁g	-34
an	-35
▁an	-36
▁l	-37
at	-38
it	-39
ar	-40
▁he	-41
▁in	-42
▁of	-43
ot	-44
▁h	-45
om	-46
▁?	-47
▁ha	-48
as	-49
ve	-50
▁be	-51
▁e	-52
▁it	-53
le	-54
▁th	-55
hat	-56
ic	-57
▁and	-58
al	-59
et	-60
us	-61
▁we	-62
▁is	-63
ow	-64
id	-65
ion	-66
▁re	-67
▁on	-68
▁that	-69
ay	-70
ent	-71
ld	-72
gh	-73
▁do	-74
ly	-75
▁not	-76
ver	-77
ac	-78
▁st	-79
ro	-80
▁for	-81
▁!	-82
im	-83
un	-84
ut	-85
se	-86
▁k	-87
ri	-88
ad	-89
▁this	-90
▁was	-91
out	-92
▁have	-93
ill	-94
ght	-95
▁`	-96
▁``	-97
ir	-98
ke	-99
▁me	-100
st	-101
am	-102
▁go	-103
ith	-104
ur	-105
ec	-106
▁with	-107
▁your	-108
▁j	-109
▁wh	-110
her	-111
ould	-112
▁my	-113
il	-114
all	-115
▁are	-116
▁li	-117
uc	-118
od	-119
▁they	-120
ome	-121
▁r	-122
▁no	-123
▁as	-124
ce	-125
one	-126
up	-127
▁se	-128
ation	-129
▁his	-130
▁at	-131
ust	-132
▁there	-133
▁sh	-134
ter	-135
▁so	-136
▁lo	-137
hing	-138
ant	-139
▁ne	-140
▁all	-141
▁she	-142
ul	-143
ra	-144
ol	-145
▁any	-146
▁con	-147
ge	-148
ore	-149
▁fr	-150
▁de	-151
pp	-152
▁ab	-153
king	-154
ess	-155
our	-156
▁ex	-157
ight	-158
▁un	-159
▁her	-160
ain	-161
very	-162
red	-163
op	-164
ab	-165
▁what	-166
ers	-167
▁did	-168
▁v	-169
▁him	-170
▁al	-171
▁will	-172
▁but	-173
▁com	-174
▁..	-175
▁...	-176
oun	-177
qu	-178
um	-179
▁out	-180
ate	-181
▁pro	-182
▁from	-183
end	-184
▁whe	-185
if	-186
ist	-187
est	-188
▁had	-189
▁or	-190
▁some	-191
os	-192
▁can	-193
▁get	-194
▁one	-195
em	-196
▁us	-197
art	-198
ch	-199
▁up	-200
and	-201
ry	-202
▁ta	-203
ive	-204
han	-205
▁by	-206
ect	-207
ure	-208
ok	-209
ig	-210
▁le	-211
ally	-212
▁wor	-213
▁sp	-214
▁about	-215
▁ca	-216
▁like	-217
ack	-218
ct	-219
▁were	-220
ard	-221
▁pl	-222
el	-223
ast	-224
ort	-225
▁ma	-226
ind	-227
▁sa	-228
ie	-229
▁just	-230
▁who	-231
▁na	-232
ment	-233
▁every	-234
▁kn	-235
▁has	-236
▁int	-237
ies	-238
▁been	-239
ous	-240
▁would	-241
▁if	-242
▁ar	-243
▁fe	-244
ong	-245
ep	-246
ven	-247
▁co	-248
▁got	-249
ity	-250
res	-251
▁here	-252
ound	-253
▁ch	-254
▁man	-255
own	-256
▁going	-257
▁cl	-258
▁tr	-259
▁could	-260
ine	-261
▁when	-262
ren	-263
▁pr	-264
ble	-265
ice	-266
▁en	-267
▁them	-268
▁does	-269
der	-270
▁how	-271
▁ri	-272
▁-	-273
ud	-274
ame	-275
reat	-276
ody	-277
ose	-278
ks	-279
▁te	-280
other	-281
fe	-282
th	-283
▁1	-284
▁want	-285
ough	-286
uch	-287
▁bl	-288
▁their	-289
ide	-290
▁gon	-291
pl	-292
▁gu	-293
▁ag	-294
ca	-295
ick	-296
▁now	-297
▁may	-298
▁mo	-299
▁qu	-300
thing	-301
▁ro	-302
▁im	-303
▁gr	-304
▁tim	-305
lf	-306
▁af	-307
way	-308
ag	-309
▁our	-310
▁know	-311
pt	-312
ink	-313
ace	-314
ther	-315
▁am	-316
itt	-317
▁look	-318
ire	-319
ip	-320
▁off	-321
▁into	-322
▁bo	-323
iv	-324
▁right	-325
use	-326
act	-327
▁ac	-328
ions	-329
▁tw	-330
▁more	-331
▁ad	-332
body	-333
able	-334
▁dis	-335
▁kill	-336
age	-337
▁let	-338
▁br	-339
▁sha	-340
▁these	-341
▁over	-342
▁comp	-343
▁say	-344
hed	-345
ans	-346
omet	-347
▁even	-348
▁than	-349
▁down	-350
▁ye	-351
▁pe	-352
ars	-353
ass	-354
ff	-355
▁cont	-356
▁per	-357
▁fo	-358
ich	-359
▁see	-360
per	-361
▁app	-362
▁sm	-363
▁only	-364
▁time	-365
▁back	-366
ck	-367
▁somet	-368
▁sc	-369
▁pre	-370
ber	-371
▁then	-372
ite	-373
▁should	-374
▁other	-375
▁take	-376
uck	-377
ub	-378
ak	-379
urn	-380
▁wo	-381
ting	-382
be	-383
▁:	-384
▁thing	-385
▁well	-386
▁come	-387
ree	-388
ue	-389
ary	-390
ated	-391
ts	-392
ial	-393
▁good	-394
ving	-395
▁must	-396
iss	-397
▁never	-398
▁res	-399
riend	-400
▁dr	-401
ase	-402
▁those	-403
ach	-404
ance	-405
▁fl	-406
▁which	-407
▁han	-408
fore	-409
▁car	-410
port	-411
ds	-412
▁why	-413
▁2	-414
▁tal	-415
▁said	-416
ved	-417
orm	-418
ress	-419
▁wa	-420
ild	-421
wn	-422
self	-423
▁mar	-424
ather	-425
▁ass	-426
ning	-427
ull	-428
ap	-429
iz	-430
▁day	-431
▁two	-432
ade	-433
▁think	-434
▁make	-435
ile	-436
cause	-437
▁anything	-438
ople	-439
▁really	-440
ence	-441
▁po	-442
▁people	-443
▁wat	-444
▁very	-445
▁something	-446
▁night	-447
ittle	-448
te	-449
▁rem	-450
▁chan	-451
▁little	-452
▁sup	-453
▁where	-454
▁again	-455
ty	-456
ations	-457
▁sec	-458
ves	-459
▁need	-460
▁jo	-461
▁cha	-462
00	-463
▁after	-464
si	-465
▁friend	-466
▁too	-467
ord	-468
we	-469
og	-470
▁ok	-471
▁str	-472
ors	-473
▁call	-474
ath	-475
▁under	-476
▁happ	-477
▁sl	-478
▁la	-479
ug	-480
▁long	-481
ise	-482
ought	-483
ys	-484
▁part	-485
ult	-486
ious	-487
▁act	-488
▁mom	-489
ens	-490
▁acc	-491
▁ke	-492
▁its	-493
▁way	-494
ical	-495
▁because	-496
▁much	-497
▁inc	-498
▁before	-499
▁someone	-500
▁thr	-501
ied	-502
ish	-503
▁mr	-504
▁bet	-505
▁work	-506
ft	-507
▁ey	-508
▁cr	-509
▁em	-510
▁comm	-511
ict	-512
pe	-513
ail	-514
▁nothing	-515
▁such	-516
▁min	-517
▁still	-518
▁maybe	-519
▁start	-520
de	-521
▁che	-522
▁rec	-523
ia	-524
▁sur	-525
ign	-526
▁kid	-527
▁ser	-528
ory	-529
▁new	-530
day	-531
duc	-532
ps	-533
▁great	-534
▁oh	-535
▁tell	-536
▁ph	-537
so	-538
▁har	-539
get	-540
▁seem	-541
ful	-542
▁ho	-543
▁fun	-544
ger	-545
▁wait	-546
▁anyone	-547
▁att	-548
▁hel	-549
ents	-550
ount	-551
are	-552
▁okay	-553
ating	-554
▁mon	-555
▁wom	-556
▁el	-557
ple	-558
ave	-559
leep	-560
ood	-561
ily	-562
▁bel	-563
ried	-564
rent	-565
ady	-566
ons	-567
▁pos	-568
▁inv	-569
▁put	-570
▁mother	-571
pos	-572
▁fir	-573
▁dif	-574
▁inf	-575
vel	-576
▁away	-577
▁made	-578
▁father	-579
▁another	-580
ted	-581
▁three	-582
▁dec	-583
▁might	-584
anc	-585
▁wr	-586
▁also	-587
ream	-588
ition	-589
▁ter	-590
▁life	-591
▁tra	-592
▁pol	-593
▁op	-594
▁feel	-595
▁reg	-596
▁keep	-597
pect	-598
▁god	-599
▁fin	-600
▁ins	-601
▁dad	-602
▁ob	-603
▁everyone	-604
▁through	-605
▁pa	-606
▁own	-607
ond	-608
▁bit	-609
▁ent	-610
▁;	-611
▁gir	-612
▁head	-613
▁sor	-614
▁inter	-615
oc	-616
▁gl	-617
led	-618
▁des	-619
ific	-620
ked	-621
ah	-622
▁cons	-623
▁child	-624
▁shall	-625
▁bu	-626
igh	-627
▁ever	-628
▁war	-629
ell	-630
▁everything	-631
ert	-632
▁find	-633
pped	-634
▁being	-635
▁sleep	-636
orr	-637
hes	-638
▁sorry	-639
▁last	-640
▁sk	-641
▁around	-642
▁/	-643
les	-644
▁ev	-645
▁cle	-646
▁play	-647
ened	-648
ark	-649
▁rel	-650
▁give	-651
▁3	-652
▁list	-653
kes	-654
ways	-655
▁first	-656
ures	-657
ward	-658
▁help	-659
ss	-660
▁love	-661
▁ple	-662
ms	-663
▁old	-664
ian	-665
▁thought	-666
▁plan	-667
▁cra	-668
ness	-669
sible	-670
▁eas	-671
▁guy	-672
▁girl	-673
llow	-674
▁bad	-675
▁hur	-676
▁hun	-677
▁miss	-678
lect	-679
▁sy	-680
▁without	-681
ucking	-682
▁beg	-683
▁wee	-684
als	-685
▁sw	-686
▁--	-687
ken	-688
lic	-689
ged	-690
▁eyes	-691
▁years	-692
rest	-693
▁always	-694
▁minut	-695
ix	-696
▁things	-697
arly	-698
oking	-699
▁hand	-700
ually	-701
ying	-702
▁big	-703
▁came	-704
▁ind	-705
▁unt	-706
▁kind	-707
ouse	-708
▁lot	-709
ates	-710
▁real	-711
enc	-712
▁fucking	-713
uff	-714
▁spe	-715
ject	-716
▁else	-717
oney	-718
▁show	-719
▁spec	-720
▁care	-721
▁set	-722
ised	-723
ner	-724
▁place	-725
ities	-726
▁turn	-727
▁use	-728
▁inst	-729
ird	-730
ual	-731
▁mat	-732
▁nobody	-733
▁sure	-734
▁sub	-735
ne	-736
▁each	-737
▁(	-738
▁)	-739
ings	-740
ph	-741
ments	-742
▁men	-743
▁gun	-744
▁ret	-745
▁fam	-746
▁bre	-747
▁mor	-748
▁until	-749
▁tom	-750
▁trans	-751
▁run	-752
▁met	-753
▁dam	-754
▁talk	-755
ost	-756
▁exc	-757
pr	-758
ient	-759
▁sho	-760
▁dead	-761
▁try	-762
▁fa	-763
its	-764
oth	-765
▁seen	-766
▁end	-767
ny	-768
ught	-769
man	-770
ever	-771
zy	-772
▁stop	-773
▁done	-774
▁many	-775
▁hour	-776
▁fire	-777
int	-778
▁hear	-779
▁air	-780
▁pers	-781
ret	-782
▁mil	-783
▁killed	-784
▁eat	-785
olog	-786
▁5	-787
▁doing	-788
less	-789
▁diffe	-790
az	-791
ince	-792
gr	-793
▁def	-794
ared	-795
ling	-796
▁son	-797
▁home	-798
▁hop	-799
▁took	-800
▁ship	-801
ang	-802
med	-803
▁enough	-804
▁requ	-805
ange	-806
ew	-807
xt	-808
▁yeah	-809
▁hum	-810
ower	-811
▁med	-812
▁sit	-813
udd	-814
▁die	-815
▁char	-816
▁name	-817
▁mean	-818
▁bab	-819
▁left	-820
▁aw	-821
▁sim	-822
cept	-823
▁woman	-824
▁open	-825
▁quick	-826
ched	-827
▁wan	-828
▁add	-829
▁prot	-830
▁remem	-831
▁told	-832
▁sign	-833
▁imp	-834
▁conf	-835
▁fuck	-836
▁most	-837
▁high	-838
▁water	-839
▁found	-840
▁stay	-841
▁bro	-842
▁saw	-843
here	-844
orrow	-845
▁yes	-846
▁used	-847
aut	-848
▁expl	-849
▁better	-850
▁house	-851
▁four	-852
iet	-853
▁friends	-854
▁eff	-855
▁pass	-856
▁death	-857
▁follow	-858
▁yet	-859
▁prov	-860
▁five	-861
▁conc	-862
ten	-863
ife	-864
▁produc	-865
▁crazy	-866
ned	-867
▁det	-868
▁mem	-869
▁gen	-870
vers	-871
▁4	-872
▁leave	-873
▁once	-874
▁ste	-875
ross	-876
▁boy	-877
▁money	-878
▁bus	-879
▁leg	-880
▁dri	-881
▁cal	-882
▁minutes	-883
ets	-884
▁pat	-885
▁fight	-886
▁comple	-887
▁coming	-888
▁days	-889
ins	-890
▁heard	-891
▁fil	-892
▁mur	-893
▁getting	-894
ont	-895
ately	-896
▁pay	-897
▁today	-898
▁pres	-899
▁hard	-900
▁da	-901
▁face	-902
▁door	-903
oy	-904
▁few	-905
▁nice	-906
ision	-907
▁looking	-908
li	-909
ired	-910
hn	-911
▁bec	-912
▁beaut	-913
▁bitch	-914
irect	-915
ility	-916
▁cut	-917
ably	-918
▁cour	-919
ines	-920
▁tomorrow	-921
▁id	-922
▁proble	-923
▁ton	-924
ank	-925
▁cert	-926
▁inte	-927
ows	-928
▁ai	-929
ib	-930
▁went	-931
▁num	-932
▁cou	-933
▁ten	-934
▁disc	-935
▁far	-936
▁thin	-937
my	-938
ison	-939
▁somebody	-940
▁par	-941
▁dream	-942
cho	-943
▁cor	-944
▁wind	-945
▁hands	-946
▁whole	-947
▁kids	-948
▁pret	-949
▁aut	-950
▁possible	-951
▁direct	-952
▁nec	-953
▁dark	-954
raid	-955
▁listen	-956
posed	-957
▁different	-958
▁10	-959
▁small	-960
▁rest	-961
▁appro	-962
ters	-963
▁since	-964
▁talking	-965
▁person	-966
▁ap	-967
▁afraid	-968
▁count	-969
▁dist	-970
▁job	-971
▁please	-972
▁remember	-973
ices	-974
▁children	-975
▁es	-976
▁same	-977
▁light	-978
ding	-979
▁ra	-980
▁hu	-981
▁ext	-982
▁dest	-983
▁baby	-984
tion	-985
▁rep	-986
▁seems	-987
▁pri	-988
stem	-989
▁happen	-990
▁swe	-991
▁taking	-992
▁surpr	-993
ased	-994
▁sing	-995
▁against	-996
▁cat	-997
▁black	-998
▁fore	-999
▁prom	-1000
▁taken	-1001
▁alm	-1002
▁change	-1003
▁eu	-1004
▁hold	-1005
▁everybody	-1006
▁world	-1007
ense	-1008
ced	-1009
▁while	-1010
ime	-1011
▁month	-1012
▁room	-1013
▁won	-1014
▁family	-1015
▁inform	-1016
▁easy	-1017
cess	-1018
▁guys	-1019
ries	-1020
ene	-1021
▁belie	-1022
▁gre	-1023
▁morning	-1024
ock	-1025
sel	-1026
iness	-1027
▁pain	-1028
more	-1029
▁return	-1030
▁dra	-1031
▁interest	-1032
▁shit	-1033
▁wal	-1034
me	-1035
▁next	-1036
ined	-1037
ho	-1038
▁ide	-1039
▁himself	-1040
▁system	-1041
▁week	-1042
▁blood	-1043
▁bring	-1044
▁coll	-1045
haps	-1046
ready	-1047
▁ris	-1048
ished	-1049
io	-1050
▁bed	-1051
ured	-1052
▁already	-1053
iful	-1054
erg	-1055
ident	-1056
▁perf	-1057
▁cho	-1058
▁fact	-1059
▁almost	-1060
▁luck	-1061
▁bra	-1062
ative	-1063
▁both	-1064
na	-1065
ash	-1066
▁able	-1067
▁ref	-1068
▁col	-1069
▁perhaps	-1070
ither	-1071
▁called	-1072
ize	-1073
▁hurt	-1074
▁tonight	-1075
▁ans	-1076
▁bar	-1077
ages	-1078
▁looks	-1079
▁hell	-1080
▁move	-1081
▁terri	-1082
▁meet	-1083
▁working	-1084
rol	-1085
hind	-1086
br	-1087
▁wife	-1088
uring	-1089
▁protect	-1090
ards	-1091
▁exp	-1092
outh	-1093
▁behind	-1094
ives	-1095
▁knew	-1096
ching	-1097
air	-1098
▁serv	-1099
ric	-1100
▁beautiful	-1101
▁sil	-1102
▁cre	-1103
▁looked	-1104
▁city	-1105
▁six	-1106
aring	-1107
ants	-1108
▁gra	-1109
chool	-1110
▁youn	-1111
ular	-1112
▁hope	-1113
▁cent	-1114
▁soon	-1115
where	-1116
▁prob	-1117
▁weap	-1118
ier	-1119
▁cur	-1120
▁z	-1121
▁pretty	-1122
▁drink	-1123
ove	-1124
▁women	-1125
▁invest	-1126
▁police	-1127
by	-1128
▁eng	-1129
▁hor	-1130
▁tri	-1131
▁weird	-1132
vie	-1133
▁grand	-1134
ully	-1135
▁oper	-1136
▁thank	-1137
▁mind	-1138
▁hours	-1139
ational	-1140
▁stand	-1141
▁lar	-1142
ater	-1143
▁school	-1144
ited	-1145
▁says	-1146
▁slow	-1147
▁din	-1148
▁win	-1149
▁chr	-1150
▁sound	-1151
av	-1152
▁hot	-1153
▁contin	-1154
▁though	-1155
▁exper	-1156
imes	-1157
tle	-1158
▁dan	-1159
ov	-1160
▁sca	-1161
ention	-1162
▁supposed	-1163
▁vis	-1164
ween	-1165
▁attack	-1166
▁resp	-1167
▁law	-1168
▁gone	-1169
▁dro	-1170
ake	-1171
▁lea	-1172
fic	-1173
▁phone	-1174
▁times	-1175
▁hey	-1176
▁between	-1177
▁u	-1178
▁breat	-1179
▁watch	-1180
▁live	-1181
▁half	-1182
▁stud	-1183
upid	-1184
land	-1185
▁form	-1186
ging	-1187
▁couple	-1188
▁fine	-1189
ible	-1190
▁gi	-1191
▁burn	-1192
▁yourself	-1193
▁food	-1194
▁shut	-1195
▁fear	-1196
wer	-1197
▁stupid	-1198
▁report	-1199
▁alone	-1200
▁white	-1201
▁heart	-1202
▁eye	-1203
ics	-1204
▁feet	-1205
▁strange	-1206
▁clos	-1207
▁sun	-1208
▁fall	-1209
udden	-1210
sh	-1211
▁bat	-1212
▁sudden	-1213
ges	-1214
▁mill	-1215
▁pict	-1216
ution	-1217
▁young	-1218
▁adv	-1219
▁lost	-1220
▁sto	-1221
▁er	-1222
▁died	-1223
▁information	-1224
▁read	-1225
▁started	-1226
cc	-1227
▁ed	-1228
▁test	-1229
the	-1230
ude	-1231
▁elect	-1232
▁20	-1233
▁su	-1234
ane	-1235
▁power	-1236
▁anymore	-1237
▁probably	-1238
▁av	-1239
tern	-1240
▁certain	-1241
▁lead	-1242
▁treat	-1243
dy	-1244
min	-1245
▁dep	-1246
ically	-1247
▁compan	-1248
▁tec	-1249
000	-1250
▁cost	-1251
▁incre	-1252
▁brother	-1253
ute	-1254
▁dem	-1255
▁check	-1256
ently	-1257
▁anim	-1258
▁import	-1259
ces	-1260
▁mark	-1261
▁number	-1262
▁gener	-1263
▁mad	-1264
orn	-1265
▁doct	-1266
ues	-1267
▁making	-1268
▁partic	-1269
▁dou	-1270
▁thanks	-1271
▁damn	-1272
▁makes	-1273
ister	-1274
▁wrong	-1275
▁hair	-1276
▁complete	-1277
▁val	-1278
▁allow	-1279
▁mag	-1280
ason	-1281
▁art	-1282
▁forget	-1283
▁underst	-1284
▁mist	-1285
▁fur	-1286
app	-1287
▁human	-1288
▁expect	-1289
▁quickly	-1290
amp	-1291
got	-1292
▁equ	-1293
▁quest	-1294
▁second	-1295
▁body	-1296
▁funny	-1297
▁cop	-1298
right	-1299
▁send	-1300
gan	-1301
▁mus	-1302
▁sn	-1303
ided	-1304
▁best	-1305
▁town	-1306
▁mod	-1307
▁longer	-1308
▁sus	-1309
▁tre	-1310
▁gave	-1311
▁wall	-1312
▁quite	-1313
ump	-1314
▁techn	-1315
▁destro	-1316
▁prof	-1317
▁saying	-1318
▁pur	-1319
▁loc	-1320
▁bas	-1321
▁dinner	-1322
▁having	-1323
▁sol	-1324
▁case	-1325
used	-1326
▁toget	-1327
▁business	-1328
hip	-1329
▁idea	-1330
▁hon	-1331
▁sex	-1332
▁however	-1333
▁together	-1334
▁knows	-1335
▁sell	-1336
▁6	-1337
ract	-1338
vious	-1339
eric	-1340
▁mrs	-1341
ists	-1342
▁fre	-1343
ern	-1344
ides	-1345
▁seemed	-1346
aster	-1347
ider	-1348
▁pub	-1349
▁effect	-1350
▁christ	-1351
▁break	-1352
▁ve	-1353
▁actually	-1354
ield	-1355
▁within	-1356
▁lun	-1357
ma	-1358
▁creat	-1359
ron	-1360
▁mine	-1361
▁control	-1362
▁cry	-1363
▁front	-1364
▁close	-1365
▁shoot	-1366
▁secret	-1367
iting	-1368
ames	-1369
▁wanted	-1370
▁%	-1371
ital	-1372
▁ty	-1373
▁euro	-1374
ork	-1375
▁vict	-1376
dred	-1377
▁grow	-1378
▁entire	-1379
▁shot	-1380
▁less	-1381
▁mess	-1382
▁free	-1383
▁appe	-1384
▁dat	-1385
▁sal	-1386
▁hundred	-1387
▁ce	-1388
▁short	-1389
ience	-1390
▁land	-1391
▁sever	-1392
▁using	-1393
▁sometimes	-1394
to	-1395
▁order	-1396
▁vo	-1397
▁phot	-1398
▁moment	-1399
▁necess	-1400
▁amaz	-1401
uct	-1402
ughter	-1403
ousand	-1404
▁full	-1405
side	-1406
▁months	-1407
▁terrible	-1408
▁thousand	-1409
rib	-1410
▁main	-1411
▁prison	-1412
ffe	-1413
▁lau	-1414
▁waiting	-1415
ified	-1416
▁book	-1417
▁wonder	-1418
oke	-1419
velop	-1420
aces	-1421
▁dog	-1422
▁red	-1423
▁speak	-1424
ained	-1425
▁miles	-1426
▁guess	-1427
lev	-1428
▁fast	-1429
▁ago	-1430
▁incl	-1431
▁side	-1432
▁ill	-1433
▁support	-1434
▁cold	-1435
▁happened	-1436
▁dev	-1437
▁anybody	-1438
▁tou	-1439
▁clot	-1440
▁di	-1441
▁stre	-1442
▁believe	-1443
bs	-1444
ered	-1445
▁several	-1446
▁happy	-1447
▁sent	-1448
ugg	-1449
▁true	-1450
▁americ	-1451
▁fel	-1452
▁quiet	-1453
▁state	-1454
con	-1455
▁inside	-1456
ror	-1457
ized	-1458
▁build	-1459
enty	-1460
ency	-1461
▁bene	-1462
pping	-1463
erv	-1464
▁point	-1465
▁gets	-1466
▁laugh	-1467
▁dress	-1468
▁cap	-1469
▁rad	-1470
ains	-1471
ially	-1472
ering	-1473
▁calm	-1474
▁destroy	-1475
▁occ	-1476
▁began	-1477
bo	-1478
▁est	-1479
▁lim	-1480
ster	-1481
▁weeks	-1482
▁answer	-1483
▁myself	-1484
▁diffic	-1485
▁asked	-1486
lo	-1487
fully	-1488
▁problem	-1489
▁meas	-1490
▁fail	-1491
▁year	-1492
ining	-1493
idence	-1494
▁sat	-1495
▁during	-1496
▁excuse	-1497
▁deal	-1498
▁pick	-1499
hen	-1500
▁nat	-1501
▁accord	-1502
▁except	-1503
▁iss	-1504
▁turned	-1505
ended	-1506
▁yours	-1507
▁develop	-1508
▁stuff	-1509
▁applic	-1510
▁deep	-1511
▁special	-1512
▁amazing	-1513
selves	-1514
▁level	-1515
arch	-1516
ik	-1517
▁understand	-1518
▁thinking	-1519
umb	-1520
▁across	-1521
▁cond	-1522
▁hy	-1523
head	-1524
▁drug	-1525
▁fell	-1526
▁danger	-1527
▁large	-1528
▁capt	-1529
ission	-1530
▁therefore	-1531
▁del	-1532
▁means	-1533
▁ant	-1534
▁rid	-1535
▁become	-1536
ote	-1537
▁necessary	-1538
▁given	-1539
▁tem	-1540
▁offic	-1541
▁aff	-1542
▁ask	-1543
▁course	-1544
▁felt	-1545
▁disapp	-1546
▁cla	-1547
ones	-1548
▁command	-1549
co	-1550
▁begin	-1551
▁trying	-1552
sib	-1553
aking	-1554
▁heal	-1555
ued	-1556
▁toward	-1557
osp	-1558
▁suc	-1559
▁mouth	-1560
▁abs	-1561
of	-1562
▁bast	-1563
▁opp	-1564
▁rob	-1565
▁8	-1566
▁fool	-1567
▁secur	-1568
▁7	-1569
fort	-1570
ee	-1571
ator	-1572
▁press	-1573
ats	-1574
ection	-1575
▁lose	-1576
▁killing	-1577
ional	-1578
▁squ	-1579
▁suff	-1580
▁prep	-1581
▁coun	-1582
▁scared	-1583
▁commun	-1584
▁doctor	-1585
hor	-1586
iot	-1587
▁others	-1588
▁repl	-1589
cum	-1590
gry	-1591
▁comes	-1592
▁further	-1593
sy	-1594
els	-1595
ural	-1596
har	-1597
sa	-1598
gn	-1599
ama	-1600
▁girls	-1601
▁smell	-1602
▁sold	-1603
▁unc	-1604
▁ear	-1605
▁cell	-1606
▁wants	-1607
▁intern	-1608
▁hit	-1609
▁activ	-1610
▁respon	-1611
▁past	-1612
▁strong	-1613
▁pull	-1614
▁wed	-1615
▁daddy	-1616
▁evening	-1617
▁bur	-1618
▁difficult	-1619
▁trust	-1620
▁norm	-1621
▁select	-1622
arth	-1623
ploy	-1624
▁sweet	-1625
▁bull	-1626
▁either	-1627
▁lady	-1628
▁sick	-1629
▁murder	-1630
ored	-1631
▁soc	-1632
rew	-1633
▁following	-1634
▁public	-1635
la	-1636
▁tax	-1637
▁along	-1638
▁clean	-1639
▁grou	-1640
▁security	-1641
▁exist	-1642
ases	-1643
ories	-1644
▁europe	-1645
band	-1646
▁trou	-1647
▁nearly	-1648
▁serious	-1649
▁hus	-1650
▁pi	-1651
▁goes	-1652
▁needs	-1653
▁inj	-1654
oud	-1655
▁game	-1656
▁proper	-1657
▁lives	-1658
▁running	-1659
▁exam	-1660
▁conn	-1661
▁data	-1662
▁19	-1663
▁rece	-1664
itting	-1665
fer	-1666
▁tar	-1667
▁scream	-1668
▁playing	-1669
▁clear	-1670
▁suddenly	-1671
irt	-1672
ply	-1673
iving	-1674
▁maj	-1675
▁sir	-1676
▁chance	-1677
erc	-1678
inal	-1679
▁organ	-1680
arr	-1681
▁opt	-1682
ler	-1683
▁ann	-1684
▁200	-1685
▁fing	-1686
▁reason	-1687
ients	-1688
vern	-1689
bers	-1690
ton	-1691
sing	-1692
▁comput	-1693
aced	-1694
▁million	-1695
▁threat	-1696
bed	-1697
▁reduc	-1698
▁nor	-1699
▁late	-1700
▁carry	-1701
▁vi	-1702
medi	-1703
idd	-1704
▁worry	-1705
▁jack	-1706
▁skin	-1707
▁bir	-1708
▁later	-1709
▁medic	-1710
onds	-1711
rents	-1712
▁risk	-1713
▁married	-1714
▁fly	-1715
ax	-1716
▁9	-1717
ination	-1718
▁arm	-1719
▁living	-1720
bt	-1721
▁leaving	-1722
▁earth	-1723
▁according	-1724
▁ran	-1725
ising	-1726
▁enem	-1727
▁finally	-1728
cent	-1729
▁huge	-1730
▁cir	-1731
▁area	-1732
▁clothes	-1733
read	-1734
▁esca	-1735
▁lock	-1736
▁const	-1737
▁eight	-1738
ina	-1739
ism	-1740
▁ru	-1741
▁outside	-1742
▁surv	-1743
▁coffe	-1744
you	-1745
▁team	-1746
▁ground	-1747
▁lear	-1748
▁road	-1749
▁least	-1750
gram	-1751
▁cust	-1752
▁important	-1753
▁rus	-1754
▁husband	-1755
▁stra	-1756
▁matter	-1757
ances	-1758
eth	-1759
▁polic	-1760
vent	-1761
dered	-1762
▁buy	-1763
ached	-1764
▁ident	-1765
ement	-1766
▁belong	-1767
itions	-1768
▁feeling	-1769
rie	-1770
zz	-1771
uation	-1772
▁priv	-1773
▁completely	-1774
▁voice	-1775
▁king	-1776
▁class	-1777
▁coffee	-1778
▁parents	-1779
▁obvious	-1780
▁daughter	-1781
atic	-1782
▁rock	-1783
▁among	-1784
▁bastard	-1785
gg	-1786
ches	-1787
▁drin	-1788
▁cross	-1789
,000	-1790
ergy	-1791
▁prin	-1792
▁lab	-1793
▁mot	-1794
▁hist	-1795
▁news	-1796
▁immedi	-1797
▁often	-1798
▁country	-1799
▁problems	-1800
▁alive	-1801
▁foot	-1802
▁idiot	-1803
▁uh	-1804
▁ball	-1805
▁mach	-1806
ept	-1807
▁upon	-1808
▁till	-1809
▁known	-1810
pri	-1811
raph	-1812
▁ge	-1813
▁tot	-1814
▁consider	-1815
▁author	-1816
▁compet	-1817
▁single	-1818
room	-1819
▁non	-1820
▁lord	-1821
ium	-1822
▁addition	-1823
▁jud	-1824
▁movie	-1825
▁word	-1826
▁pot	-1827
▁weapons	-1828
▁ready	-1829
▁question	-1830
ected	-1831
▁save	-1832
▁ver	-1833
▁nort	-1834
▁low	-1835
ify	-1836
omb	-1837
ims	-1838
▁moving	-1839
▁worried	-1840
line	-1841
▁compl	-1842
omm	-1843
ze	-1844
▁pack	-1845
▁star	-1846
rence	-1847
▁ord	-1848
iod	-1849
▁slowly	-1850
▁program	-1851
ration	-1852
▁mount	-1853
▁15	-1854
ires	-1855
go	-1856
mer	-1857
▁imag	-1858
▁arri	-1859
ney	-1860
▁piec	-1861
▁12	-1862
▁company	-1863
▁wedding	-1864
▁lie	-1865
▁ger	-1866
▁perfect	-1867
▁stopped	-1868
rup	-1869
▁specific	-1870
▁present	-1871
▁brain	-1872
oon	-1873
▁forgot	-1874
ology	-1875
ending	-1876
▁film	-1877
▁near	-1878
▁govern	-1879
irty	-1880
▁energy	-1881
▁sleeping	-1882
▁object	-1883
▁unable	-1884
▁var	-1885
▁table	-1886
▁huh	-1887
▁net	-1888
▁apart	-1889
▁top	-1890
▁exact	-1891
▁caught	-1892
▁health	-1893
iding	-1894
▁market	-1895
▁twenty	-1896
▁arrest	-1897
▁trouble	-1898
mb	-1899
▁none	-1900
▁safe	-1901
▁changed	-1902
▁mic	-1903
▁lucky	-1904
ians	-1905
pa	-1906
▁invol	-1907
▁impro	-1908
▁gold	-1909
▁boat	-1910
▁sad	-1911
▁wound	-1912
▁pleas	-1913
said	-1914
▁sam	-1915
pose	-1916
▁needed	-1917
▁process	-1918
cl	-1919
ules	-1920
tered	-1921
▁army	-1922
ulation	-1923
▁investig	-1924
▁employ	-1925
ots	-1926
▁fat	-1927
lled	-1928
▁disappe	-1929
▁surprise	-1930
▁custom	-1931
▁tv	-1932
▁flo	-1933
▁sou	-1934
▁moved	-1935
▁bag	-1936
ring	-1937
itted	-1938
▁wood	-1939
ury	-1940
work	-1941
▁post	-1942
▁weapon	-1943
▁boys	-1944
rently	-1945
▁od	-1946
▁service	-1947
▁0	-1948
ped	-1949
ises	-1950
itary	-1951
itor	-1952
▁pet	-1953
iny	-1954
▁guns	-1955
▁line	-1956
▁period	-1957
unt	-1958
▁div	-1959
ob	-1960
▁joke	-1961
▁fle	-1962
▁financ	-1963
unk	-1964
lish	-1965
▁vie	-1966
men	-1967
▁jes	-1968
▁broken	-1969
ye	-1970
▁perform	-1971
ior	-1972
par	-1973
▁fig	-1974
dam	-1975
▁hosp	-1976
▁worse	-1977
▁street	-1978
▁picture	-1979
▁inn	-1980
▁sister	-1981
▁step	-1982
icle	-1983
▁instr	-1984
▁brought	-1985
▁surprised	-1986
▁pen	-1987
▁sum	-1988
inary	-1989
▁conv	-1990
▁glass	-1991
uth	-1992
▁teac	-1993
▁ur	-1994
ality	-1995
▁view	-1996
ief	-1997
▁viol	-1998
▁proced	-1999
▁contact	-2000
▁obs	-2001
▁smile	-2002
airs	-2003
▁lunch	-2004
▁member	-2005
▁rather	-2006
▁success	-2007
oss	-2008
aged	-2009
▁econ	-2010
▁mass	-2011
▁words	-2012
rig	-2013
▁ren	-2014
▁100	-2015
▁econom	-2016
▁impos	-2017
▁appropri	-2018
set	-2019
empt	-2020
▁walk	-2021
▁treatment	-2022
▁takes	-2023
▁minute	-2024
▁includ	-2025
▁cam	-2026
▁dance	-2027
illed	-2028
▁rap	-2029
▁states	-2030
hole	-2031
▁require	-2032
▁ir	-2033
▁kiss	-2034
▁seconds	-2035
▁green	-2036
ived	-2037
▁mama	-2038
ills	-2039
▁profess	-2040
▁project	-2041
▁30	-2042
▁request	-2043
▁env	-2044
ction	-2045
▁butt	-2046
ery	-2047
▁uni	-2048
▁sky	-2049
▁ban	-2050
▁vol	-2051
▁held	-2052
▁poor	-2053
▁tro	-2054
▁missing	-2055
ceed	-2056
ification	-2057
▁story	-2058
aining	-2059
ilt	-2060
▁above	-2061
▁pract	-2062
▁eating	-2063
▁mistake	-2064
▁pus	-2065
▁promise	-2066
▁watching	-2067
▁hat	-2068
▁captain	-2069
▁worth	-2070
▁computer	-2071
▁hol	-2072
▁tried	-2073
▁whose	-2074
▁jesus	-2075
▁pop	-2076
lling	-2077
▁sort	-2078
▁wit	-2079
fet	-2080
▁animals	-2081
▁themselves	-2082
▁immediately	-2083
▁bes	-2084
▁group	-2085
ony	-2086
▁major	-2087
ale	-2088
▁adm	-2089
▁target	-2090
uri	-2091
▁event	-2092
view	-2093
▁plane	-2094
▁record	-2095
▁breath	-2096
▁decision	-2097
▁pictures	-2098
▁sense	-2099
▁telling	-2100
illy	-2101
▁gar	-2102
▁song	-2103
▁field	-2104
bor	-2105
▁den	-2106
itive	-2107
▁blue	-2108
▁kept	-2109
▁ice	-2110
▁travel	-2111
▁military	-2112
▁battle	-2113
▁sea	-2114
▁court	-2115
▁accept	-2116
hy	-2117
▁catch	-2118
▁steal	-2119
ili	-2120
por	-2121
ume	-2122
▁access	-2123
▁window	-2124
▁enc	-2125
▁je	-2126
▁docum	-2127
▁agre	-2128
▁third	-2129
oper	-2130
▁unless	-2131
▁calling	-2132
ming	-2133
▁seven	-2134
▁usually	-2135
▁national	-2136
ls	-2137
▁doors	-2138
▁fif	-2139
▁stood	-2140
plement	-2141
▁exactly	-2142
val	-2143
▁heav	-2144
over	-2145
▁closed	-2146
iers	-2147
▁bot	-2148
▁doll	-2149
▁birth	-2150
▁neigh	-2151
uss	-2152
▁animal	-2153
▁neither	-2154
▁sens	-2155
▁horse	-2156
oid	-2157
▁polit	-2158
play	-2159
gth	-2160
▁pun	-2161
▁rese	-2162
icient	-2163
▁cover	-2164
▁bor	-2165
▁self	-2166
▁gas	-2167
▁wonderful	-2168
▁apolog	-2169
▁asshole	-2170
▁interested	-2171
ults	-2172
▁changes	-2173
▁measures	-2174
▁listening	-2175
▁normal	-2176
ees	-2177
▁arr	-2178
▁cause	-2179
▁contract	-2180
▁file	-2181
▁concer	-2182
▁comb	-2183
▁somewhere	-2184
acy	-2185
▁hospital	-2186
▁grab	-2187
.1	-2188
▁lay	-2189
▁speed	-2190
▁provide	-2191
cy	-2192
gress	-2193
▁indic	-2194
▁impossible	-2195
▁50	-2196
ability	-2197
ivid	-2198
▁fair	-2199
▁deter	-2200
▁early	-2201
▁signific	-2202
▁truth	-2203
▁possib	-2204
owing	-2205
▁fac	-2206
▁fighting	-2207
▁angry	-2208
▁rele	-2209
▁evidence	-2210
cks	-2211
▁simple	-2212
▁fav	-2213
ateg	-2214
▁cars	-2215
▁commission	-2216
▁appropriate	-2217
ences	-2218
▁touch	-2219
ening	-2220
riage	-2221
lly	-2222
old	-2223
▁soft	-2224
iled	-2225
▁hide	-2226
▁port	-2227
▁required	-2228
▁bank	-2229
▁weak	-2230
▁cool	-2231
▁box	-2232
▁card	-2233
▁percent	-2234
bit	-2235
▁emb	-2236
▁ens	-2237
▁price	-2238
▁whether	-2239
▁pan	-2240
ulous	-2241
▁poin	-2242
cha	-2243
ift	-2244
pec	-2245
▁dise	-2246
cle	-2247
▁ble	-2248
▁neck	-2249
▁guard	-2250
▁party	-2251
uel	-2252
▁seat	-2253
ishing	-2254
▁address	-2255
▁seeing	-2256
▁lying	-2257
ung	-2258
iling	-2259
▁shar	-2260
▁paid	-2261
minist	-2262
▁bal	-2263
▁desc	-2264
▁enemy	-2265
▁escape	-2266
mp	-2267
▁memory	-2268
▁kidding	-2269
▁design	-2270
▁patients	-2271
▁arms	-2272
▁choice	-2273
▁german	-2274
isions	-2275
▁works	-2276
▁music	-2277
▁telev	-2278
▁private	-2279
▁services	-2280
▁accident	-2281
ops	-2282
iter	-2283
▁hig	-2284
▁particular	-2285
▁result	-2286
▁allowed	-2287
▁prevent	-2288
▁init	-2289
▁avail	-2290
▁dying	-2291
▁super	-2292
▁giving	-2293
▁visit	-2294
che	-2295
iron	-2296
ature	-2297
▁stri	-2298
▁north	-2299
▁itself	-2300
▁asleep	-2301
▁create	-2302
▁killer	-2303
▁incred	-2304
ball	-2305
▁ach	-2306
▁appa	-2307
ential	-2308
▁ele	-2309
though	-2310
ils	-2311
key	-2312
▁wearing	-2313
▁shad	-2314
▁x	-2315
ators	-2316
▁cy	-2317
▁civ	-2318
▁display	-2319
▁individ	-2320
for	-2321
what	-2322
▁anyway	-2323
▁television	-2324
▁hate	-2325
▁hurry	-2326
▁account	-2327
▁|	-2328
pes	-2329
▁drag	-2330
▁trad	-2331
▁estab	-2332
▁stren	-2333
▁herself	-2334
▁suspect	-2335
▁respect	-2336
▁path	-2337
▁clearly	-2338
▁although	-2339
▁american	-2340
imum	-2341
▁costs	-2342
▁certainly	-2343
▁building	-2344
▁significant	-2345
ode	-2346
▁whatever	-2347
▁aud	-2348
▁sounds	-2349
▁camp	-2350
bl	-2351
que	-2352
▁consum	-2353
▁manage	-2354
▁jail	-2355
▁ones	-2356
▁easily	-2357
▁opened	-2358
▁general	-2359
▁jour	-2360
▁teeth	-2361
▁carried	-2362
▁fix	-2363
ograph	-2364
▁russi	-2365
ey	-2366
amed	-2367
▁psy	-2368
ky	-2369
erve	-2370
▁drugs	-2371
▁force	-2372
let	-2373
▁doubt	-2374
▁administ	-2375
▁danc	-2376
▁harm	-2377
▁policy	-2378
▁government	-2379
▁jump	-2380
▁john	-2381
▁transport	-2382
▁drive	-2383
▁space	-2384
▁watched	-2385
▁local	-2386
▁environ	-2387
▁medical	-2388
▁motherf	-2389
roduc	-2390
▁imm	-2391
▁slight	-2392
▁dangerous	-2393
aff	-2394
▁hi	-2395
▁deli	-2396
▁rules	-2397
▁enj	-2398
▁pal	-2399
ental	-2400
▁history	-2401
▁increase	-2402
rect	-2403
ashed	-2404
▁stat	-2405
▁office	-2406
uts	-2407
ords	-2408
▁obviously	-2409
▁clim	-2410
uggest	-2411
▁civil	-2412
▁personal	-2413
▁straight	-2414
▁bomb	-2415
▁suggest	-2416
▁hall	-2417
▁wild	-2418
▁achie	-2419
▁wish	-2420
▁honey	-2421
▁assist	-2422
▁repe	-2423
▁explos	-2424
aw	-2425
▁bi	-2426
acter	-2427
▁master	-2428
▁lad	-2429
ively	-2430
▁thinks	-2431
▁returned	-2432
ask	-2433
▁age	-2434
ortun	-2435
▁defin	-2436
▁opportun	-2437
ral	-2438
ses	-2439
▁mut	-2440
▁sand	-2441
▁stone	-2442
▁implement	-2443
iation	-2444
▁south	-2445
▁detail	-2446
▁regard	-2447
icking	-2448
▁hello	-2449
▁mal	-2450
▁beat	-2451
▁lawy	-2452
▁marriage	-2453
ta	-2454
▁available	-2455
▁benef	-2456
atory	-2457
▁likely	-2458
rit	-2459
uit	-2460
▁fut	-2461
▁destroyed	-2462
▁environment	-2463
ray	-2464
ension	-2465
▁absol	-2466
▁draw	-2467
▁smoke	-2468
ley	-2469
▁lang	-2470
▁wear	-2471
▁cook	-2472
▁colle	-2473
ilities	-2474
▁forward	-2475
▁meeting	-2476
light	-2477
▁occur	-2478
vered	-2479
▁meant	-2480
▁drinking	-2481
▁peace	-2482
▁radio	-2483
▁below	-2484
een	-2485
▁vac	-2486
▁autom	-2487
▁arg	-2488
▁jew	-2489
▁tast	-2490
▁write	-2491
▁choose	-2492
▁experience	-2493
▁empt	-2494
▁asking	-2495
▁training	-2496
gen	-2497
▁action	-2498
▁budd	-2499
pecially	-2500
▁page	-2501
▁extra	-2502
▁communic	-2503
just	-2504
▁dear	-2505
▁separ	-2506
▁loss	-2507
▁bath	-2508
▁heavy	-2509
▁engine	-2510
▁round	-2511
▁warm	-2512
ruc	-2513
▁rain	-2514
▁pressure	-2515
▁especially	-2516
iday	-2517
ogn	-2518
erial	-2519
▁susp	-2520
▁magic	-2521
▁relax	-2522
▁forg	-2523
iated	-2524
▁emerg	-2525
▁became	-2526
▁mum	-2527
▁cele	-2528
▁waste	-2529
▁nose	-2530
▁likes	-2531
▁search	-2532
▁don	-2533
▁date	-2534
▁react	-2535
▁cab	-2536
▁vide	-2537
ression	-2538
▁silence	-2539
▁egg	-2540
▁max	-2541
▁honor	-2542
▁assess	-2543
▁celebr	-2544
▁flight	-2545
▁drop	-2546
▁mult	-2547
▁goddam	-2548
▁absolute	-2549
▁european	-2550
▁mis	-2551
ipped	-2552
sed	-2553
▁bare	-2554
▁sour	-2555
ensive	-2556
▁piece	-2557
▁subst	-2558
▁install	-2559
▁motherfuck	-2560
▁broad	-2561
▁corr	-2562
▁regul	-2563
▁fish	-2564
acking	-2565
▁dreams	-2566
ex	-2567
▁cute	-2568
ners	-2569
terday	-2570
▁chair	-2571
▁simply	-2572
▁reached	-2573
▁teacher	-2574
ead	-2575
▁message	-2576
bye	-2577
▁suit	-2578
▁passed	-2579
▁jer	-2580
▁damage	-2581
▁recomm	-2582
▁terror	-2583
▁subject	-2584
▁yesterday	-2585
▁fort	-2586
hood	-2587
▁losing	-2588
▁situation	-2589
sequ	-2590
▁due	-2591
▁key	-2592
▁remain	-2593
ese	-2594
▁sar	-2595
▁fren	-2596
▁enter	-2597
▁prec	-2598
▁type	-2599
isation	-2600
ization	-2601
itten	-2602
▁repres	-2603
hol	-2604
rap	-2605
▁dut	-2606
iff	-2607
cell	-2608
▁dom	-2609
▁anal	-2610
▁machine	-2611
▁forgotten	-2612
▁final	-2613
▁tight	-2614
▁recogn	-2615
▁phys	-2616
▁broke	-2617
▁sword	-2618
▁setting	-2619
ilar	-2620
▁gent	-2621
▁laun	-2622
▁load	-2623
▁camer	-2624
▁production	-2625
▁rout	-2626
▁raised	-2627
omp	-2628
▁veh	-2629
▁effort	-2630
ological	-2631
▁ahead	-2632
▁continued	-2633
▁perm	-2634
▁van	-2635
▁inde	-2636
▁darkness	-2637
▁products	-2638
▁financial	-2639
▁host	-2640
▁rom	-2641
astic	-2642
friend	-2643
idered	-2644
▁systems	-2645
▁continue	-2646
▁rev	-2647
▁bill	-2648
▁ring	-2649
▁prior	-2650
eg	-2651
ded	-2652
nel	-2653
▁hea	-2654
idden	-2655
▁spir	-2656
hod	-2657
▁evil	-2658
▁horri	-2659
▁cup	-2660
▁social	-2661
▁worked	-2662
▁soldiers	-2663
▁cops	-2664
▁log	-2665
▁crime	-2666
▁hotel	-2667
▁attempt	-2668
aint	-2669
▁reven	-2670
▁relations	-2671
ana	-2672
▁planet	-2673
▁ali	-2674
▁hang	-2675
▁error	-2676
▁trees	-2677
▁spl	-2678
▁windows	-2679
▁beha	-2680
▁thus	-2681
▁truck	-2682
▁desp	-2683
▁aid	-2684
owers	-2685
▁island	-2686
▁protection	-2687
using	-2688
▁failed	-2689
▁witness	-2690
▁odd	-2691
▁based	-2692
▁langu	-2693
▁application	-2694
ucks	-2695
omes	-2696
usion	-2697
▁cooper	-2698
▁future	-2699
▁blo	-2700
▁sitting	-2701
▁conditions	-2702
▁11	-2703
aled	-2704
▁equip	-2705
▁fingers	-2706
▁board	-2707
▁happening	-2708
▁subm	-2709
▁anc	-2710
▁floor	-2711
▁staff	-2712
▁mention	-2713
▁cred	-2714
▁instead	-2715
▁apparently	-2716
▁bud	-2717
ption	-2718
▁activities	-2719
▁ign	-2720
ache	-2721
▁tele	-2722
rief	-2723
▁lat	-2724
▁dele	-2725
▁careful	-2726
▁whis	-2727
▁assoc	-2728
asing	-2729
▁sect	-2730
▁saved	-2731
kn	-2732
▁orig	-2733
▁disease	-2734
▁equipment	-2735
▁vill	-2736
▁cast	-2737
▁dick	-2738
utions	-2739
wise	-2740
▁foc	-2741
▁demand	-2742
do	-2743
gu	-2744
son	-2745
▁crew	-2746
fety	-2747
hold	-2748
▁bright	-2749
▁ben	-2750
▁glad	-2751
▁shout	-2752
▁infl	-2753
▁orders	-2754
hin	-2755
bing	-2756
▁feed	-2757
▁empty	-2758
▁handle	-2759
▁kick	-2760
▁safety	-2761
▁scient	-2762
▁provided	-2763
▁pap	-2764
idge	-2765
▁legs	-2766
▁reve	-2767
iced	-2768
▁tough	-2769
▁spread	-2770
▁issue	-2771
▁foreign	-2772
▁selling	-2773
▁psych	-2774
eless	-2775
▁basis	-2776
▁material	-2777
▁position	-2778
▁fra	-2779
▁oil	-2780
▁tur	-2781
▁depart	-2782
▁concern	-2783
come	-2784
▁stom	-2785
▁upset	-2786
▁common	-2787
▁ast	-2788
▁dig	-2789
▁legal	-2790
llen	-2791
▁charge	-2792
▁gentle	-2793
▁silly	-2794
▁18	-2795
ault	-2796
like	-2797
▁boss	-2798
▁meat	-2799
▁english	-2800
▁color	-2801
▁goddamn	-2802
▁finished	-2803
▁operation	-2804
▁west	-2805
▁fuckin	-2806
▁heaven	-2807
▁walked	-2808
▁helping	-2809
▁kil	-2810
▁sle	-2811
▁twice	-2812
▁president	-2813
▁considered	-2814
ka	-2815
orge	-2816
▁loved	-2817
▁holding	-2818
▁development	-2819
▁ug	-2820
iety	-2821
▁pleasure	-2822
une	-2823
akes	-2824
ously	-2825
▁companies	-2826
▁mir	-2827
▁crying	-2828
ius	-2829
▁method	-2830
▁beginning	-2831
fact	-2832
▁chick	-2833
mas	-2834
iles	-2835
▁cases	-2836
▁confir	-2837
▁countries	-2838
▁convers	-2839
▁rich	-2840
▁lower	-2841
▁shame	-2842
itely	-2843
▁product	-2844
▁warning	-2845
▁questions	-2846
year	-2847
▁chest	-2848
imed	-2849
▁tree	-2850
▁awful	-2851
ples	-2852
▁fro	-2853
▁french	-2854
▁fright	-2855
reme	-2856
oming	-2857
▁blow	-2858
▁amount	-2859
▁photo	-2860
▁resour	-2861
▁imagine	-2862
▁lived	-2863
▁names	-2864
▁laughing	-2865
▁starting	-2866
▁dar	-2867
▁cult	-2868
▁heat	-2869
▁spoke	-2870
ender	-2871
▁staying	-2872
▁train	-2873
▁indust	-2874
roat	-2875
▁trade	-2876
▁discuss	-2877
▁stomach	-2878
▁forever	-2879
▁represent	-2880
.2	-2881
pper	-2882
▁rub	-2883
arant	-2884
rict	-2885
▁individual	-2886
▁led	-2887
▁lic	-2888
▁lovely	-2889
▁value	-2890
▁dropped	-2891
▁improve	-2892
▁expected	-2893
▁throw	-2894
aks	-2895
uly	-2896
uses	-2897
uries	-2898
▁files	-2899
▁fired	-2900
▁dancing	-2901
▁directly	-2902
ends	-2903
▁soul	-2904
▁tool	-2905
▁greater	-2906
zen	-2907
▁bod	-2908
▁fault	-2909
▁caused	-2910
▁station	-2911
▁writing	-2912
▁offer	-2913
ech	-2914
xic	-2915
▁current	-2916
▁bey	-2917
▁pig	-2918
▁paper	-2919
▁towards	-2920
▁mid	-2921
▁upd	-2922
▁double	-2923
▁incredible	-2924
▁apply	-2925
aur	-2926
▁wide	-2927
▁locked	-2928
▁interesting	-2929
rill	-2930
▁band	-2931
▁calls	-2932
▁correct	-2933
ci	-2934
fast	-2935
▁noise	-2936
▁books	-2937
▁mommy	-2938
▁introduc	-2939
▁ves	-2940
▁pregn	-2941
▁progress	-2942
▁chief	-2943
▁ridic	-2944
▁forest	-2945
▁intell	-2946
▁weight	-2947
▁certific	-2948
▁insane	-2949
teen	-2950
▁beer	-2951
▁calc	-2952
▁tour	-2953
▁reading	-2954
▁motherfucker	-2955
lished	-2956
▁smart	-2957
▁research	-2958
▁track	-2959
owed	-2960
rage	-2961
ument	-2962
▁lips	-2963
▁boyfriend	-2964
▁hero	-2965
▁singing	-2966
▁planning	-2967
▁crim	-2968
▁buddy	-2969
▁total	-2970
ference	-2971
lfriend	-2972
▁burned	-2973
▁higher	-2974
▁humans	-2975
▁patient	-2976
▁demon	-2977
▁sight	-2978
▁201	-2979
▁vir	-2980
ables	-2981
▁mart	-2982
overed	-2983
▁enjoy	-2984
▁covered	-2985
▁involved	-2986
verse	-2987
▁educ	-2988
▁beneath	-2989
▁happens	-2990
▁results	-2991
raft	-2992
▁ugly	-2993
▁places	-2994
▁driving	-2995
▁innoc	-2996
▁share	-2997
▁aftern	-2998
▁filled	-2999
▁management	-3000
lig	-3001
▁ut	-3002
ressed	-3003
▁walls	-3004
hib	-3005
time	-3006
▁resc	-3007
▁store	-3008
unately	-3009
form	-3010
▁rose	-3011
▁dirty	-3012
▁technology	-3013
yl	-3014
▁anti	-3015
▁marry	-3016
▁regret	-3017
mail	-3018
▁dumb	-3019
▁disappeared	-3020
chan	-3021
▁dry	-3022
▁detect	-3023
ival	-3024
omed	-3025
▁beyond	-3026
▁followed	-3027
▁learn	-3028
▁loves	-3029
▁article	-3030
▁similar	-3031
▁anywhere	-3032
po	-3033
▁merc	-3034
▁growing	-3035
stairs	-3036
▁speaking	-3037
▁tiny	-3038
▁unfort	-3039
▁ridiculous	-3040
▁pray	-3041
▁ships	-3042
▁web	-3043
▁park	-3044
how	-3045
isl	-3046
ager	-3047
resh	-3048
▁mer	-3049
arily	-3050
▁rapid	-3051
▁pulled	-3052
▁afternoon	-3053
▁reach	-3054
▁honest	-3055
mon	-3056
antly	-3057
▁flying	-3058
▁talked	-3059
▁america	-3060
▁apologize	-3061
ush	-3062
▁40	-3063
▁cash	-3064
▁attention	-3065
▁character	-3066
▁cit	-3067
▁item	-3068
▁breakfast	-3069
▁girlfriend	-3070
▁mob	-3071
▁spot	-3072
ruction	-3073
▁victim	-3074
rer	-3075
▁vessel	-3076
▁concerned	-3077
ram	-3078
itch	-3079
▁iron	-3080
▁struct	-3081
▁sen	-3082
▁nine	-3083
▁opening	-3084
▁appl	-3085
▁video	-3086
▁device	-3087
▁excell	-3088
▁throat	-3089
▁otherwise	-3090
erved	-3091
icide	-3092
▁concent	-3093
▁officer	-3094
▁horrible	-3095
cher	-3096
▁cand	-3097
▁emot	-3098
▁breathing	-3099
str	-3100
▁extreme	-3101
▁survive	-3102
▁univers	-3103
▁christmas	-3104
▁rate	-3105
▁economic	-3106
well	-3107
▁grad	-3108
▁image	-3109
▁lawyer	-3110
▁dollars	-3111
▁electric	-3112
▁opportunity	-3113
cer	-3114
icks	-3115
▁absolutely	-3116
au	-3117
arrass	-3118
▁strateg	-3119
▁embarrass	-3120
ites	-3121
rets	-3122
▁neg	-3123
aries	-3124
▁freed	-3125
▁showed	-3126
▁explain	-3127
▁procedure	-3128
▁remo	-3129
▁relig	-3130
▁emergency	-3131
shit	-3132
▁storm	-3133
▁appear	-3134
▁mere	-3135
▁shoes	-3136
gers	-3137
▁thick	-3138
▁bloody	-3139
▁condition	-3140
▁pil	-3141
icated	-3142
▁sac	-3143
▁written	-3144
yn	-3145
▁nerv	-3146
▁natural	-3147
▁shooting	-3148
▁strength	-3149
▁anger	-3150
▁investigation	-3151
mes	-3152
eral	-3153
▁relationship	-3154
▁surf	-3155
▁comfort	-3156
▁chur	-3157
▁breast	-3158
▁whoever	-3159
▁commander	-3160
rop	-3161
▁circ	-3162
▁gate	-3163
▁contrib	-3164
▁document	-3165
asons	-3166
▁guarant	-3167
▁include	-3168
ests	-3169
night	-3170
▁moon	-3171
▁river	-3172
sec	-3173
ledge	-3174
atives	-3175
▁previous	-3176
▁everywhere	-3177
▁kit	-3178
▁snow	-3179
▁slightly	-3180
urance	-3181
oked	-3182
▁fed	-3183
▁tor	-3184
▁suppl	-3185
▁hungry	-3186
▁transfer	-3187
ancy	-3188
▁amb	-3189
▁base	-3190
▁lift	-3191
▁leaves	-3192
▁aware	-3193
▁games	-3194
▁silent	-3195
▁increased	-3196
▁areas	-3197
▁forgive	-3198
▁recently	-3199
arm	-3200
▁deb	-3201
▁avoid	-3202
▁decided	-3203
▁language	-3204
▁hen	-3205
▁apartment	-3206
▁pants	-3207
▁pound	-3208
▁collect	-3209
▁regular	-3210
▁mountain	-3211
▁born	-3212
▁burning	-3213
▁additional	-3214
▁delay	-3215
▁propos	-3216
▁connect	-3217
ids	-3218
ocks	-3219
▁saving	-3220
▁\	-3221
▁hors	-3222
▁earli	-3223
▁grant	-3224
▁tired	-3225
▁budget	-3226
▁college	-3227
▁interrup	-3228
term	-3229
▁spent	-3230
▁levels	-3231
▁reject	-3232
▁chem	-3233
▁adjust	-3234
▁troops	-3235
ule	-3236
▁bow	-3237
ato	-3238
lear	-3239
inated	-3240
▁network	-3241
▁reports	-3242
▁bullshit	-3243
▁favor	-3244
▁faster	-3245
▁gotten	-3246
▁hidden	-3247
▁legisl	-3248
▁created	-3249
inct	-3250
▁occas	-3251
▁inspect	-3252
▁ess	-3253
▁mel	-3254
▁east	-3255
▁lu	-3256
▁shr	-3257
▁prim	-3258
▁site	-3259
▁dim	-3260
▁rat	-3261
▁poison	-3262
▁purpose	-3263
▁totally	-3264
▁definitely	-3265
tic	-3266
▁fem	-3267
▁farm	-3268
▁determ	-3269
▁waited	-3270
▁piss	-3271
▁sake	-3272
▁changing	-3273
hern	-3274
▁rare	-3275
▁spend	-3276
▁finger	-3277
▁picked	-3278
▁ms	-3279
▁stol	-3280
▁nature	-3281
lin	-3282
lder	-3283
▁shows	-3284
▁photos	-3285
▁wel	-3286
▁impact	-3287
▁prices	-3288
▁contain	-3289
▁ah	-3290
▁bleed	-3291
▁bodies	-3292
▁distance	-3293
mm	-3294
▁san	-3295
▁25	-3296
sc	-3297
▁ange	-3298
ession	-3299
▁built	-3300
▁plant	-3301
▁experi	-3302
▁numbers	-3303
▁trip	-3304
▁16	-3305
itude	-3306
▁plans	-3307
▁thirty	-3308
▁carrying	-3309
hal	-3310
▁response	-3311
gest	-3312
▁exec	-3313
▁pred	-3314
▁negot	-3315
▁study	-3316
▁horses	-3317
▁temper	-3318
▁13	-3319
▁internet	-3320
▁property	-3321
craft	-3322
▁ride	-3323
▁sending	-3324
▁standing	-3325
▁excellent	-3326
asc	-3327
iple	-3328
▁frequ	-3329
▁monitor	-3330
▁respond	-3331
▁authorities	-3332
:00	-3333
reen	-3334
isted	-3335
▁barely	-3336
▁issues	-3337
▁injured	-3338
▁passen	-3339
▁reasons	-3340
bel	-3341
▁grown	-3342
▁kidna	-3343
▁explosion	-3344
▁thousands	-3345
esome	-3346
▁wine	-3347
uments	-3348
▁citiz	-3349
▁starts	-3350
▁victims	-3351
▁received	-3352
inc	-3353
▁terms	-3354
▁notice	-3355
▁ancient	-3356
nes	-3357
▁mix	-3358
▁rot	-3359
▁whore	-3360
▁ensure	-3361
▁hardly	-3362
▁stolen	-3363
▁consequ	-3364
aked	-3365
ties	-3366
▁bun	-3367
wards	-3368
▁size	-3369
▁shirt	-3370
▁micro	-3371
▁church	-3372
▁hiding	-3373
▁particul	-3374
▁powerful	-3375
▁gh	-3376
▁jap	-3377
▁advant	-3378
▁letter	-3379
▁breathe	-3380
▁official	-3381
oms	-3382
▁dust	-3383
▁unf	-3384
▁dude	-3385
▁brief	-3386
▁lights	-3387
▁intellig	-3388
wered	-3389
▁onto	-3390
za	-3391
▁ba	-3392
▁tong	-3393
▁competition	-3394
yle	-3395
▁affect	-3396
▁murdered	-3397
▁gay	-3398
▁tea	-3399
▁und	-3400
▁parties	-3401
▁um	-3402
vies	-3403
▁ric	-3404
▁bear	-3405
▁beauty	-3406
▁birthday	-3407
▁fant	-3408
▁thoughts	-3409
▁political	-3410
ips	-3411
bered	-3412
▁excl	-3413
▁gray	-3414
▁streets	-3415
▁responsib	-3416
▁indeed	-3417
▁promised	-3418
▁mi	-3419
ague	-3420
▁len	-3421
▁link	-3422
▁tall	-3423
▁fresh	-3424
▁innocent	-3425
chen	-3426
▁nuc	-3427
phone	-3428
▁increasing	-3429
eter	-3430
▁dies	-3431
▁dose	-3432
▁threw	-3433
▁credit	-3434
▁neighb	-3435
▁spirit	-3436
ara	-3437
▁cig	-3438
▁sale	-3439
ulf	-3440
▁tick	-3441
mother	-3442
▁heads	-3443
▁paying	-3444
▁remind	-3445
▁challen	-3446
iven	-3447
▁missed	-3448
▁awesome	-3449
▁hearing	-3450
▁appeared	-3451
▁mg	-3452
▁wol	-3453
▁user	-3454
▁option	-3455
▁nervous	-3456
anced	-3457
▁judge	-3458
▁summer	-3459
▁capable	-3460
▁various	-3461
dom	-3462
▁opin	-3463
▁race	-3464
▁text	-3465
▁metal	-3466
ocked	-3467
aded	-3468
enced	-3469
▁rail	-3470
▁whom	-3471
▁delic	-3472
ruct	-3473
▁crow	-3474
▁mort	-3475
▁supply	-3476
▁community	-3477
▁including	-3478
▁investment	-3479
house	-3480
▁gives	-3481
▁range	-3482
▁arrived	-3483
▁workers	-3484
off	-3485
▁knife	-3486
▁buying	-3487
▁members	-3488
▁screaming	-3489
▁decl	-3490
▁join	-3491
▁blind	-3492
▁instit	-3493
▁complex	-3494
▁activity	-3495
▁sufficient	-3496
put	-3497
iform	-3498
iliar	-3499
ounts	-3500
▁ears	-3501
▁doctors	-3502
oned	-3503
▁earlier	-3504
▁grandma	-3505
▁signal	-3506
▁reported	-3507
▁sport	-3508
▁finish	-3509
▁sin	-3510
iance	-3511
olution	-3512
ope	-3513
▁sla	-3514
▁club	-3515
▁gard	-3516
rences	-3517
▁brown	-3518
▁circum	-3519
▁frank	-3520
▁mechan	-3521
▁prefer	-3522
▁carefully	-3523
pro	-3524
▁drinks	-3525
▁tun	-3526
▁loud	-3527
▁related	-3528
▁wounded	-3529
▁oblig	-3530
▁myster	-3531
▁seriously	-3532
▁24	-3533
ades	-3534
▁illeg	-3535
▁client	-3536
▁measure	-3537
uing	-3538
levant	-3539
▁liked	-3540
▁taste	-3541
▁tan	-3542
erves	-3543
▁bott	-3544
▁cart	-3545
▁beside	-3546
▁exchan	-3547
▁guards	-3548
▁attract	-3549
▁records	-3550
▁answered	-3551
▁restrict	-3552
▁selected	-3553
▁particularly	-3554
▁unfortunately	-3555
af	-3556
iddle	-3557
▁highly	-3558
▁quality	-3559
▁international	-3560
ki	-3561
yal	-3562
round	-3563
▁japan	-3564
aret	-3565
etic	-3566
icles	-3567
▁coast	-3568
▁limit	-3569
▁besides	-3570
▁resources	-3571
▁certificate	-3572
gs	-3573
▁eval	-3574
▁drunk	-3575
▁rescue	-3576
▁noticed	-3577
▁options	-3578
▁effective	-3579
▁knowledge	-3580
▁conversation	-3581
dra	-3582
aching	-3583
aly	-3584
▁ya	-3585
▁ways	-3586
▁motor	-3587
▁shadow	-3588
▁medicine	-3589
▁risks	-3590
▁stars	-3591
▁movies	-3592
rel	-3593
urs	-3594
▁sche	-3595
▁sear	-3596
▁faces	-3597
▁traff	-3598
▁uncle	-3599
▁corrid	-3600
▁easier	-3601
▁played	-3602
▁putting	-3603
▁cro	-3604
inese	-3605
▁stick	-3606
▁bother	-3607
▁prepared	-3608
antic	-3609
▁unit	-3610
▁remove	-3611
▁stared	-3612
▁neighbor	-3613
rate	-3614
uted	-3615
▁awa	-3616
▁feels	-3617
▁giant	-3618
▁commit	-3619
▁rights	-3620
▁champ	-3621
▁parts	-3622
▁contro	-3623
▁russian	-3624
ker	-3625
▁bigger	-3626
ino	-3627
▁wake	-3628
▁prepare	-3629
▁arrested	-3630
▁nav	-3631
ham	-3632
tain	-3633
▁hom	-3634
▁rough	-3635
▁driver	-3636
▁suspic	-3637
▁holiday	-3638
▁walking	-3639
▁function	-3640
▁vot	-3641
▁dogs	-3642
ternal	-3643
▁export	-3644
▁belongs	-3645
▁extremely	-3646
▁lou	-3647
▁hous	-3648
ground	-3649
▁cells	-3650
▁queen	-3651
▁slept	-3652
▁tests	-3653
▁source	-3654
▁mas	-3655
▁adop	-3656
▁stories	-3657
▁particip	-3658
▁perfectly	-3659
gust	-3660
▁scary	-3661
▁defend	-3662
▁mostly	-3663
▁bathroom	-3664
▁decisions	-3665
▁requirements	-3666
▁uns	-3667
cohol	-3668
▁older	-3669
▁hoping	-3670
anny	-3671
▁gal	-3672
ament	-3673
▁firm	-3674
▁tears	-3675
▁yellow	-3676
▁chinese	-3677
▁ordinary	-3678
▁violence	-3679
bi	-3680
▁meal	-3681
▁restaur	-3682
▁14	-3683
▁joy	-3684
▁tend	-3685
▁despite	-3686
▁mountains	-3687
▁00	-3688
istic	-3689
▁bell	-3690
▁named	-3691
▁interview	-3692
▁grandmother	-3693
oh	-3694
▁17	-3695
▁cas	-3696
▁hyp	-3697
▁tort	-3698
▁ghost	-3699
▁winter	-3700
▁kilomet	-3701
▁nuclear	-3702
▁proceed	-3703
ev	-3704
▁cz	-3705
▁bird	-3706
▁shop	-3707
▁insurance	-3708
▁du	-3709
▁nast	-3710
▁claim	-3711
▁fully	-3712
▁grass	-3713
▁points	-3714
wor	-3715
▁influ	-3716
▁sharp	-3717
▁explan	-3718
▁airport	-3719
▁victory	-3720
▁procedures	-3721
▁199	-3722
iment	-3723
father	-3724
▁monster	-3725
-1	-3726
no	-3727
iant	-3728
oken	-3729
izing	-3730
▁harry	-3731
▁photograph	-3732
ica	-3733
▁cow	-3734
▁manu	-3735
▁vote	-3736
▁sched	-3737
▁camera	-3738
▁uniform	-3739
▁grew	-3740
▁yards	-3741
▁struck	-3742
▁freedom	-3743
▁secrets	-3744
ek	-3745
▁arch	-3746
▁flat	-3747
▁match	-3748
▁raise	-3749
▁scare	-3750
▁wrote	-3751
war	-3752
▁scar	-3753
▁assum	-3754
▁plenty	-3755
▁direction	-3756
▁lots	-3757
▁feelings	-3758
▁tradition	-3759
fl	-3760
mber	-3761
▁stab	-3762
▁ideas	-3763
▁altern	-3764
▁helped	-3765
▁defense	-3766
that	-3767
▁nod	-3768
▁closer	-3769
▁alcohol	-3770
▁established	-3771
vert	-3772
▁brit	-3773
▁debt	-3774
▁shock	-3775
▁analys	-3776
▁actions	-3777
▁enemies	-3778
▁fal	-3779
▁liqu	-3780
▁cream	-3781
▁estim	-3782
▁attacked	-3783
▁potential	-3784
▁eventually	-3785
▁syn	-3786
urious	-3787
▁beast	-3788
▁bucks	-3789
▁center	-3790
▁memories	-3791
▁fit	-3792
▁entered	-3793
▁turning	-3794
▁suffering	-3795
oint	-3796
▁plus	-3797
▁warri	-3798
▁distur	-3799
▁meters	-3800
▁agreement	-3801
▁tongue	-3802
▁connection	-3803
ocol	-3804
▁ang	-3805
▁border	-3806
▁surely	-3807
▁heading	-3808
▁kitchen	-3809
▁mission	-3810
▁planned	-3811
▁reflect	-3812
▁appears	-3813
▁journey	-3814
▁society	-3815
▁possibility	-3816
▁concl	-3817
▁learned	-3818
▁circumst	-3819
▁released	-3820
▁trick	-3821
▁recent	-3822
▁talent	-3823
▁injuries	-3824
bb	-3825
▁example	-3826
ilies	-3827
idents	-3828
▁maximum	-3829
▁surround	-3830
acity	-3831
▁stole	-3832
▁standard	-3833
▁kar	-3834
▁conduc	-3835
▁growth	-3836
▁pieces	-3837
▁familiar	-3838
▁recommend	-3839
rog	-3840
▁urg	-3841
▁middle	-3842
▁criminal	-3843
▁fol	-3844
▁wet	-3845
aging	-3846
▁eggs	-3847
▁oppos	-3848
▁figure	-3849
▁manufact	-3850
▁ourselves	-3851
▁magn	-3852
▁shown	-3853
▁receive	-3854
▁administr	-3855
▁university	-3856
▁responsible	-3857
fle	-3858
cast	-3859
▁code	-3860
▁mail	-3861
▁fallen	-3862
▁effects	-3863
▁technical	-3864
ai	-3865
den	-3866
▁deg	-3867
▁cris	-3868
atically	-3869
▁keeping	-3870
▁fate	-3871
▁afric	-3872
▁counc	-3873
▁daily	-3874
▁forces	-3875
▁touched	-3876
vere	-3877
▁flu	-3878
▁mac	-3879
▁sides	-3880
▁resist	-3881
▁limited	-3882
▁suppose	-3883
▁relevant	-3884
.3	-3885
equ	-3886
rast	-3887
▁wow	-3888
cious	-3889
▁paul	-3890
▁blame	-3891
▁nasty	-3892
▁falling	-3893
▁release	-3894
▁village	-3895
▁term	-3896
tering	-3897
▁disgust	-3898
fied	-3899
▁ale	-3900
orders	-3901
▁sales	-3902
▁events	-3903
▁sector	-3904
▁arrange	-3905
▁documents	-3906
▁education	-3907
▁associated	-3908
▁added	-3909
▁regist	-3910
ipe	-3911
aches	-3912
▁rocks	-3913
▁nights	-3914
▁strugg	-3915
▁chicken	-3916
▁goodbye	-3917
▁projects	-3918
▁note	-3919
▁agent	-3920
▁fifty	-3921
▁proof	-3922
wh	-3923
ocr	-3924
board	-3925
▁faith	-3926
▁illegal	-3927
▁removed	-3928
▁aircraft	-3929
▁students	-3930
ns	-3931
▁clin	-3932
▁unus	-3933
▁calcul	-3934
▁hunting	-3935
▁suicide	-3936
▁creature	-3937
inted	-3938
▁milk	-3939
▁youth	-3940
▁assass	-3941
▁bought	-3942
▁vehicle	-3943
▁approach	-3944
osen	-3945
▁lines	-3946
▁smoking	-3947
▁football	-3948
▁ladies	-3949
▁minimum	-3950
xy	-3951
▁ju	-3952
known	-3953
▁gang	-3954
▁consult	-3955
wers	-3956
▁usual	-3957
itation	-3958
▁announ	-3959
▁finding	-3960
▁expecting	-3961
und	-3962
▁emp	-3963
▁sch	-3964
▁lack	-3965
▁vers	-3966
▁hurts	-3967
▁failure	-3968
▁replaced	-3969
▁difference	-3970
anger	-3971
▁duty	-3972
▁proud	-3973
▁achieve	-3974
▁[	-3975
▁opinion	-3976
▁customers	-3977
amb	-3978
▁gri	-3979
▁rab	-3980
acing	-3981
▁bound	-3982
▁groups	-3983
▁promot	-3984
▁purcha	-3985
▁central	-3986
▁remembered	-3987
ga	-3988
but	-3989
isc	-3990
▁pup	-3991
▁scr	-3992
epend	-3993
▁mate	-3994
▁appre	-3995
▁goods	-3996
▁fought	-3997
▁george	-3998
▁applied	-3999
▁professional	-4000
esh	-4001
gar	-4002
derer	-4003
▁journ	-4004
▁modern	-4005
▁science	-4006
▁]	-4007
▁swim	-4008
▁drove	-4009
▁worst	-4010
iveness	-4011
▁brothers	-4012
▁pul	-4013
▁hunt	-4014
▁sexy	-4015
▁funds	-4016
▁smiling	-4017
▁responsibility	-4018
ero	-4019
ware	-4020
▁der	-4021
▁sna	-4022
▁hole	-4023
▁pair	-4024
▁rule	-4025
▁fixed	-4026
▁cooperation	-4027
ilty	-4028
▁ham	-4029
▁narr	-4030
▁quar	-4031
▁vamp	-4032
▁undert	-4033
rom	-4034
▁reduce	-4035
▁benefits	-4036
▁families	-4037
▁pregnant	-4038
.5	-4039
▁ven	-4040
heart	-4041
▁lean	-4042
▁cards	-4043
▁stage	-4044
▁shoulder	-4045
bby	-4046
▁ax	-4047
back	-4048
▁grey	-4049
▁rand	-4050
▁basic	-4051
▁brand	-4052
▁quietly	-4053
▁murderer	-4054
▁normally	-4055
▁practice	-4056
thy	-4057
▁glo	-4058
verage	-4059
▁traffic	-4060
▁useless	-4061
mo	-4062
▁belt	-4063
▁images	-4064
▁merely	-4065
▁silver	-4066
▁electron	-4067
ena	-4068
▁ep	-4069
▁york	-4070
▁satis	-4071
▁sunday	-4072
▁applications	-4073
▁rum	-4074
▁tub	-4075
▁entr	-4076
▁pock	-4077
▁helic	-4078
▁guilty	-4079
▁invent	-4080
▁joking	-4081
▁content	-4082
▁fishing	-4083
▁internal	-4084
▁operations	-4085
cing	-4086
▁stuck	-4087
▁surface	-4088
-2	-4089
ams	-4090
▁aunt	-4091
▁fill	-4092
▁lone	-4093
▁ours	-4094
▁rent	-4095
▁histor	-4096
▁replied	-4097
▁assessment	-4098
grat	-4099
▁gall	-4100
▁pure	-4101
ionally	-4102
▁cigaret	-4103
▁solution	-4104
▁holy	-4105
▁scene	-4106
▁negoti	-4107
▁remained	-4108
▁scientific	-4109
▁legislation	-4110
▁performance	-4111
▁coat	-4112
▁glob	-4113
▁mars	-4114
▁balls	-4115
▁behav	-4116
▁frame	-4117
▁screw	-4118
▁lately	-4119
▁review	-4120
▁rising	-4121
▁partners	-4122
cles	-4123
▁crap	-4124
▁lies	-4125
▁male	-4126
▁peter	-4127
▁bridge	-4128
▁skills	-4129
▁lit	-4130
▁reb	-4131
▁copy	-4132
▁cous	-4133
▁exha	-4134
▁model	-4135
▁leading	-4136
lls	-4137
wal	-4138
▁keeps	-4139
▁transm	-4140
▁discovered	-4141
▁circumstances	-4142
▁bullet	-4143
▁implementation	-4144
▁hal	-4145
▁pha	-4146
iture	-4147
▁dial	-4148
▁crack	-4149
▁users	-4150
▁chosen	-4151
▁smiled	-4152
▁tempor	-4153
▁corridor	-4154
▁millions	-4155
okes	-4156
▁jim	-4157
under	-4158
▁desk	-4159
▁task	-4160
▁steel	-4161
▁surve	-4162
▁useful	-4163
▁revenge	-4164
▁washing	-4165
▁telephone	-4166
▁lin	-4167
cking	-4168
▁horr	-4169
▁jobs	-4170
▁wore	-4171
▁quant	-4172
▁student	-4173
wk	-4174
▁bom	-4175
▁gift	-4176
▁eaten	-4177
▁fucked	-4178
▁repeat	-4179
▁remains	-4180
▁chemical	-4181
down	-4182
rial	-4183
▁gaz	-4184
▁trail	-4185
▁injury	-4186
▁focus	-4187
▁serge	-4188
▁therap	-4189
▁commerc	-4190
▁letters	-4191
▁disappear	-4192
reg	-4193
▁fuel	-4194
▁phil	-4195
▁truly	-4196
▁config	-4197
▁sexual	-4198
▁counter	-4199
▁darling	-4200
▁weather	-4201
▁requires	-4202
▁advantage	-4203
▁currently	-4204
▁pu	-4205
acle	-4206
▁prove	-4207
▁satur	-4208
▁trial	-4209
▁smells	-4210
▁checked	-4211
▁citizens	-4212
▁independ	-4213
▁vacation	-4214
hard	-4215
▁chap	-4216
▁twel	-4217
▁stealing	-4218
▁bul	-4219
▁gro	-4220
atures	-4221
iction	-4222
istics	-4223
▁stret	-4224
▁female	-4225
▁helicop	-4226
▁meaning	-4227
▁entirely	-4228
ann	-4229
tes	-4230
▁cock	-4231
▁stayed	-4232
▁flowers	-4233
▁successful	-4234
▁throughout	-4235
gy	-4236
▁oce	-4237
▁clever	-4238
▁fucker	-4239
▁somehow	-4240
▁expression	-4241
she	-4242
ompan	-4243
▁mary	-4244
▁route	-4245
▁movement	-4246
▁physical	-4247
▁prisoners	-4248
▁understood	-4249
▁nur	-4250
encies	-4251
▁aband	-4252
▁toile	-4253
▁descri	-4254
▁recall	-4255
▁showing	-4256
▁welcome	-4257
▁et	-4258
bert	-4259
tery	-4260
▁doub	-4261
▁bones	-4262
▁labor	-4263
▁pounds	-4264
▁capital	-4265
▁professor	-4266
▁via	-4267
▁bite	-4268
▁bone	-4269
▁laug	-4270
▁ended	-4271
▁fellow	-4272
▁biggest	-4273
▁capacity	-4274
▁designed	-4275
va	-4276
▁&	-4277
force	-4278
▁datab	-4279
▁equal	-4280
▁screen	-4281
▁details	-4282
▁instruct	-4283
▁ga	-4284
esty	-4285
▁crit	-4286
▁hill	-4287
▁begun	-4288
▁stream	-4289
mar	-4290
▁ate	-4291
▁sug	-4292
▁tat	-4293
▁council	-4294
▁environmental	-4295
stand	-4296
▁serve	-4297
▁prince	-4298
▁journal	-4299
▁possibly	-4300
▁performed	-4301
▁commercial	-4302
▁grandfather	-4303
kin	-4304
clock	-4305
overy	-4306
▁simpl	-4307
▁crisis	-4308
▁rapidly	-4309
▁weekend	-4310
▁employees	-4311
ws	-4312
lie	-4313
▁60	-4314
▁nuts	-4315
▁ought	-4316
▁pattern	-4317
▁reduced	-4318
uk	-4319
▁wis	-4320
usted	-4321
▁dism	-4322
▁squad	-4323
▁union	-4324
▁location	-4325
▁machines	-4326
▁explanation	-4327
wood	-4328
▁clou	-4329
ifying	-4330
▁fifteen	-4331
▁industry	-4332
eds	-4333
▁acqu	-4334
▁bond	-4335
▁acting	-4336
▁deliver	-4337
▁dressed	-4338
▁partner	-4339
▁painting	-4340
▁mentioned	-4341
pet	-4342
oura	-4343
▁burst	-4344
▁woods	-4345
▁candid	-4346
▁online	-4347
▁studies	-4348
▁testing	-4349
▁department	-4350
▁frightened	-4351
▁ec	-4352
ders	-4353
▁alien	-4354
▁liber	-4355
▁sacri	-4356
▁decide	-4357
▁headed	-4358
▁believed	-4359
▁regulation	-4360
uce	-4361
uls	-4362
enses	-4363
gment	-4364
▁cere	-4365
ertain	-4366
▁teach	-4367
▁expert	-4368
▁transl	-4369
▁managed	-4370
▁creatures	-4371
▁restaurant	-4372
fo	-4373
▁larger	-4374
▁follows	-4375
▁provisions	-4376
ya	-4377
iev	-4378
▁poss	-4379
▁tank	-4380
▁wave	-4381
▁brill	-4382
▁pilot	-4383
▁swear	-4384
▁corpor	-4385
▁mental	-4386
▁messages	-4387
▁communication	-4388
row	-4389
case	-4390
▁busy	-4391
▁exceed	-4392
▁garden	-4393
▁twelve	-4394
▁expensive	-4395
ppy	-4396
pse	-4397
▁defe	-4398
▁pill	-4399
▁ruin	-4400
▁assume	-4401
▁suffer	-4402
▁saturday	-4403
▁disgusting	-4404
ici	-4405
▁mc	-4406
hered	-4407
▁role	-4408
▁actual	-4409
▁spoken	-4410
▁alright	-4411
▁bedroom	-4412
▁benefit	-4413
▁accompan	-4414
▁separate	-4415
▁stopping	-4416
▁500	-4417
place	-4418
▁rise	-4419
▁stro	-4420
▁knees	-4421
▁unknown	-4422
met	-4423
▁mand	-4424
▁suck	-4425
▁global	-4426
▁massive	-4427
▁species	-4428
▁director	-4429
hel	-4430
hael	-4431
word	-4432
▁pra	-4433
essed	-4434
ondon	-4435
▁fake	-4436
▁tail	-4437
▁unex	-4438
▁career	-4439
▁golden	-4440
▁staring	-4441
▁existing	-4442
gl	-4443
can	-4444
tained	-4445
▁strang	-4446
▁bleeding	-4447
dro	-4448
▁flew	-4449
▁qual	-4450
▁sout	-4451
▁symb	-4452
▁thor	-4453
▁leader	-4454
▁distrib	-4455
▁laughed	-4456
▁bringing	-4457
▁intention	-4458
agn	-4459
▁banks	-4460
▁cried	-4461
▁rooms	-4462
▁betray	-4463
▁cities	-4464
▁closing	-4465
▁analysis	-4466
aming	-4467
▁laws	-4468
▁mexic	-4469
▁signs	-4470
▁inject	-4471
▁london	-4472
▁taught	-4473
▁initial	-4474
▁assistance	-4475
▁confidence	-4476
▁investments	-4477
bar	-4478
ivity	-4479
▁agree	-4480
zing	-4481
▁thy	-4482
▁typ	-4483
▁wash	-4484
▁steps	-4485
issions	-4486
▁server	-4487
▁strike	-4488
▁unusual	-4489
▁provision	-4490
ani	-4491
xim	-4492
wing	-4493
atell	-4494
▁seek	-4495
▁birds	-4496
▁boats	-4497
▁drawn	-4498
▁exchange	-4499
ott	-4500
rupt	-4501
▁sym	-4502
inate	-4503
▁nons	-4504
▁purs	-4505
▁original	-4506
▁intelligence	-4507
▁alt	-4508
ading	-4509
iders	-4510
oring	-4511
▁anne	-4512
▁tells	-4513
▁agreed	-4514
▁assign	-4515
▁compar	-4516
▁superv	-4517
▁statement	-4518
▁iv	-4519
▁divor	-4520
▁princ	-4521
▁claims	-4522
▁united	-4523
▁surprising	-4524
pir	-4525
▁coord	-4526
▁films	-4527
▁innov	-4528
▁liter	-4529
▁reply	-4530
ishment	-4531
▁territ	-4532
▁knowing	-4533
▁consumers	-4534
▁_	-4535
esc	-4536
field	-4537
▁alarm	-4538
▁checks	-4539
▁termin	-4540
▁unlike	-4541
▁payment	-4542
▁reality	-4543
▁treated	-4544
icted	-4545
▁keys	-4546
▁awake	-4547
▁funct	-4548
▁turns	-4549
▁deeply	-4550
▁desper	-4551
▁efforts	-4552
▁neighbour	-4553
▁sweetheart	-4554
▁instruments	-4555
▁hung	-4556
▁jerk	-4557
▁tape	-4558
▁attor	-4559
▁units	-4560
▁square	-4561
▁escaped	-4562
▁hundreds	-4563
▁suffe	-4564
ibility	-4565
▁pushed	-4566
▁matters	-4567
▁smaller	-4568
▁clothing	-4569
▁properly	-4570
dr	-4571
ij	-4572
▁sav	-4573
▁cake	-4574
▁diam	-4575
▁sees	-4576
uration	-4577
▁gently	-4578
▁profit	-4579
▁cos	-4580
▁ray	-4581
▁drew	-4582
▁woke	-4583
▁belly	-4584
▁blank	-4585
▁china	-4586
▁figured	-4587
▁completed	-4588
▁sig	-4589
▁wid	-4590
iable	-4591
▁rein	-4592
▁false	-4593
▁flesh	-4594
▁achieved	-4595
▁directive	-4596
▁dav	-4597
▁nut	-4598
▁email	-4599
▁hoped	-4600
▁button	-4601
▁cancer	-4602
▁former	-4603
▁length	-4604
▁status	-4605
▁confirm	-4606
▁section	-4607
▁reaction	-4608
▁hopefully	-4609
▁protected	-4610
asy	-4611
iat	-4612
lim	-4613
▁smo	-4614
▁guid	-4615
▁accur	-4616
▁active	-4617
▁positive	-4618
resp	-4619
▁runs	-4620
▁items	-4621
▁paris	-4622
▁cousin	-4623
▁income	-4624
▁jacket	-4625
▁michael	-4626
▁upstairs	-4627
oded	-4628
sect	-4629
▁hug	-4630
ushed	-4631
▁dragon	-4632
▁interp	-4633
▁cooking	-4634
▁germany	-4635
▁pleasant	-4636
▁transact	-4637
▁vehicles	-4638
▁concerning	-4639
law	-4640
gery	-4641
▁luc	-4642
▁categ	-4643
▁exerc	-4644
▁severe	-4645
▁medication	-4646
▁automatically	-4647
bur	-4648
tled	-4649
celer	-4650
▁grin	-4651
▁wire	-4652
▁friday	-4653
▁plants	-4654
▁essential	-4655
▁bon	-4656
fered	-4657
▁enorm	-4658
▁motion	-4659
▁perman	-4660
▁balance	-4661
▁letting	-4662
▁nonsense	-4663
uous	-4664
▁disp	-4665
▁swit	-4666
▁stock	-4667
▁height	-4668
▁stones	-4669
▁acceler	-4670
▁greatest	-4671
▁wondered	-4672
▁businesses	-4673
▁avo	-4674
▁prem	-4675
▁rene	-4676
▁collap	-4677
▁secure	-4678
▁delight	-4679
▁deserve	-4680
▁worries	-4681
▁becoming	-4682
▁observed	-4683
▁settings	-4684
▁suffered	-4685
▁ber	-4686
▁bug	-4687
▁joe	-4688
oying	-4689
ulate	-4690
▁block	-4691
▁skull	-4692
▁allows	-4693
▁enable	-4694
▁papers	-4695
▁clients	-4696
▁included	-4697
▁mistakes	-4698
▁gentlemen	-4699
▁shoulders	-4700
uded	-4701
▁aim	-4702
orage	-4703
▁refer	-4704
▁nation	-4705
▁satell	-4706
▁techni	-4707
▁ability	-4708
▁soldier	-4709
▁weakness	-4710
▁developed	-4711
aken	-4712
uled	-4713
▁unn	-4714
pered	-4715
ribed	-4716
▁pink	-4717
▁sant	-4718
▁tools	-4719
ada	-4720
▁eh	-4721
onent	-4722
sters	-4723
▁adequ	-4724
▁minor	-4725
▁spring	-4726
ointment	-4727
▁pleased	-4728
▁stepped	-4729
▁generally	-4730
icked	-4731
▁craw	-4732
agraph	-4733
▁admit	-4734
▁tower	-4735
▁reveal	-4736
▁winning	-4737
▁controls	-4738
▁realized	-4739
rs	-4740
gin	-4741
▁bags	-4742
▁spar	-4743
▁ocean	-4744
▁valid	-4745
▁famous	-4746
▁reform	-4747
▁attacks	-4748
▁bullets	-4749
▁devices	-4750
▁granted	-4751
▁breaking	-4752
olved	-4753
▁subs	-4754
▁badly	-4755
▁entry	-4756
▁grave	-4757
▁kills	-4758
▁panic	-4759
▁sympt	-4760
▁combat	-4761
▁justice	-4762
▁precise	-4763
▁administration	-4764
uli	-4765
▁ry	-4766
▁lam	-4767
▁forty	-4768
▁solid	-4769
▁robber	-4770
▁negative	-4771
▁establish	-4772
ban	-4773
vest	-4774
▁split	-4775
▁clouds	-4776
▁settle	-4777
▁grandpa	-4778
▁hanging	-4779
▁markets	-4780
▁affected	-4781
▁substant	-4782
▁reduction	-4783
bage	-4784
uary	-4785
▁boo	-4786
▁jan	-4787
▁prop	-4788
▁bottle	-4789
▁cutting	-4790
▁election	-4791
lor	-4792
ashion	-4793
▁shots	-4794
▁sugar	-4795
▁mainly	-4796
▁century	-4797
▁provides	-4798
▁buildings	-4799
▁temperature	-4800
bon	-4801
▁22	-4802
rian	-4803
▁fer	-4804
▁dawn	-4805
▁webs	-4806
▁dozen	-4807
▁france	-4808
▁committ	-4809
▁leather	-4810
▁officers	-4811
▁employment	-4812
▁complicated	-4813
uten	-4814
▁gain	-4815
▁libr	-4816
▁charges	-4817
▁consist	-4818
▁involve	-4819
▁cleaning	-4820
▁sergeant	-4821
ae	-4822
ura	-4823
▁ult	-4824
ervation	-4825
▁advance	-4826
▁moreover	-4827
▁wondering	-4828
▁comfortable	-4829
oo	-4830
hest	-4831
ompl	-4832
▁ara	-4833
▁ends	-4834
▁impl	-4835
▁lands	-4836
▁shape	-4837
uations	-4838
▁advice	-4839
▁democr	-4840
▁prohib	-4841
▁enterpr	-4842
▁funding	-4843
▁majesty	-4844
▁offered	-4845
▁protecting	-4846
otic	-4847
ript	-4848
▁vast	-4849
▁cance	-4850
▁prosec	-4851
▁shouted	-4852
▁storage	-4853
▁rejected	-4854
▁electricity	-4855
ille	-4856
▁roof	-4857
pected	-4858
▁plate	-4859
▁shield	-4860
▁average	-4861
▁breasts	-4862
▁illness	-4863
▁prisoner	-4864
▁screamed	-4865
▁differences	-4866
▁experienced	-4867
ril	-4868
▁ka	-4869
▁pin	-4870
▁wes	-4871
rated	-4872
▁wand	-4873
▁placed	-4874
▁chances	-4875
▁therapy	-4876
▁strategy	-4877
mat	-4878
▁pist	-4879
▁bread	-4880
▁cheap	-4881
▁cloud	-4882
▁horror	-4883
▁assault	-4884
▁fis	-4885
▁lif	-4886
ember	-4887
▁chat	-4888
▁waves	-4889
▁wings	-4890
▁integr	-4891
▁persons	-4892
▁listened	-4893
▁multiple	-4894
▁passengers	-4895
vin	-4896
rant	-4897
▁000	-4898
▁wars	-4899
▁answers	-4900
▁constit	-4901
▁withdra	-4902
▁kilometers	-4903
.0	-4904
hant	-4905
oured	-4906
▁shel	-4907
▁virt	-4908
▁dread	-4909
looking	-4910
▁update	-4911
▁wounds	-4912
▁brilliant	-4913
▁connected	-4914
▁guarantee	-4915
▁selection	-4916
hand	-4917
▁map	-4918
▁tit	-4919
ardon	-4920
▁sust	-4921
▁agric	-4922
▁veget	-4923
eration	-4924
▁lifted	-4925
▁powers	-4926
▁produce	-4927
▁enormous	-4928
▁laughter	-4929
ko	-4930
alous	-4931
▁limits	-4932
▁pissed	-4933
.4	-4934
ari	-4935
ole	-4936
▁21	-4937
▁mm	-4938
▁ada	-4939
▁jam	-4940
▁vent	-4941
▁arrive	-4942
▁toilet	-4943
▁relative	-4944
▁300	-4945
▁fab	-4946
▁nic	-4947
▁gest	-4948
▁uses	-4949
▁guests	-4950
▁liquid	-4951
▁ly	-4952
▁wolf	-4953
▁blade	-4954
▁centre	-4955
▁express	-4956
▁madness	-4957
▁agricult	-4958
▁contains	-4959
▁gods	-4960
▁fears	-4961
▁plain	-4962
▁issued	-4963
▁attorney	-4964
▁proposal	-4965
▁sne	-4966
▁laid	-4967
ements	-4968
ocking	-4969
▁shore	-4970
▁bottom	-4971
▁houses	-4972
▁ordered	-4973
▁overall	-4974
▁religious	-4975
▁instructions	-4976
▁ol	-4977
ping	-4978
ivered	-4979
▁conce	-4980
▁imper	-4981
▁media	-4982
▁occup	-4983
▁corner	-4984
▁ruined	-4985
▁values	-4986
▁billion	-4987
▁monitoring	-4988
five	-4989
owned	-4990
▁alex	-4991
▁helps	-4992
▁types	-4993
▁wheel	-4994
▁borrow	-4995
▁colone	-4996
▁surgery	-4997
▁specified	-4998
ein	-4999
umn	-5000
▁tum	-5001
▁vic	-5002
▁wra	-5003
▁remote	-5004
▁chamber	-5005
▁glasses	-5006
▁argument	-5007
▁presence	-5008
ita	-5009
▁kr	-5010
gthe	-5011
osis	-5012
▁ing	-5013
kward	-5014
paper	-5015
▁award	-5016
▁origin	-5017
▁pocket	-5018
▁pointed	-5019
▁extraord	-5020
▁humanity	-5021
▁teaching	-5022
dle	-5023
▁jul	-5024
▁quit	-5025
▁cabin	-5026
▁brains	-5027
▁nothin	-5028
▁signed	-5029
▁symbol	-5030
ulations	-5031
▁becomes	-5032
▁spending	-5033
ibly	-5034
▁atm	-5035
▁err	-5036
▁rear	-5037
▁sail	-5038
▁scan	-5039
▁sweat	-5040
▁kicked	-5041
▁monday	-5042
▁urgent	-5043
▁external	-5044
▁somewhat	-5045
▁population	-5046
▁plat	-5047
▁spell	-5048
▁moments	-5049
▁japanese	-5050
▁answering	-5051
▁authority	-5052
▁computers	-5053
▁unexpected	-5054
book	-5055
▁pow	-5056
▁ram	-5057
▁flood	-5058
ologies	-5059
▁lonely	-5060
▁awkward	-5061
▁lieuten	-5062
▁concerns	-5063
▁database	-5064
▁handsome	-5065
▁paragraph	-5066
▁returning	-5067
da	-5068
▁chin	-5069
▁initi	-5070
▁recon	-5071
▁theory	-5072
▁charlie	-5073
ipp	-5074
▁ii	-5075
▁batt	-5076
▁pool	-5077
▁annual	-5078
▁gather	-5079
▁congrat	-5080
▁economy	-5081
▁entrance	-5082
▁fantastic	-5083
ti	-5084
▁q	-5085
rim	-5086
rees	-5087
▁aside	-5088
▁faint	-5089
▁taxes	-5090
▁depend	-5091
▁priest	-5092
▁colonel	-5093
▁manager	-5094
▁minister	-5095
▁committee	-5096
bal	-5097
imate	-5098
ulated	-5099
▁aimed	-5100
▁treas	-5101
vention	-5102
▁delete	-5103
▁shadows	-5104
▁customer	-5105
▁occurred	-5106
▁territory	-5107
▁row	-5108
▁elev	-5109
▁tent	-5110
▁eyebr	-5111
▁latest	-5112
▁smooth	-5113
▁downstairs	-5114
▁electronic	-5115
▁lieutenant	-5116
unate	-5117
▁brave	-5118
▁creep	-5119
▁penal	-5120
▁somed	-5121
▁jumped	-5122
▁random	-5123
▁series	-5124
▁garbage	-5125
▁helicopter	-5126
▁construction	-5127
aine	-5128
▁encoun	-5129
▁forced	-5130
▁mobile	-5131
▁pistol	-5132
▁someday	-5133
▁identified	-5134
born	-5135
fall	-5136
rael	-5137
acles	-5138
▁chose	-5139
▁rifle	-5140
▁swift	-5141
▁nearby	-5142
▁causing	-5143
▁nowhere	-5144
▁southern	-5145
▁kim	-5146
▁pec	-5147
agger	-5148
▁shif	-5149
▁tits	-5150
▁torn	-5151
▁angel	-5152
▁cheese	-5153
▁expend	-5154
▁fourth	-5155
▁season	-5156
▁contracts	-5157
▁recognize	-5158
▁instrument	-5159
sp	-5160
rad	-5161
▁fold	-5162
▁armed	-5163
▁crash	-5164
▁unbel	-5165
▁demonstr	-5166
▁confident	-5167
▁delicious	-5168
tw	-5169
wed	-5170
abled	-5171
erson	-5172
▁pier	-5173
isters	-5174
▁leads	-5175
▁beating	-5176
▁corresp	-5177
▁replace	-5178
▁compared	-5179
▁structure	-5180
has	-5181
hawk	-5182
ques	-5183
road	-5184
▁ken	-5185
▁nin	-5186
▁wiz	-5187
▁acid	-5188
▁adapt	-5189
▁cruel	-5190
▁fruit	-5191
▁joint	-5192
▁naked	-5193
▁metres	-5194
▁reward	-5195
▁charged	-5196
▁invited	-5197
▁plastic	-5198
▁password	-5199
▁princess	-5200
▁evaluation	-5201
oph	-5202
▁trig	-5203
ointed	-5204
▁pages	-5205
▁upper	-5206
▁pardon	-5207
▁symptoms	-5208
▁committed	-5209
▁operating	-5210
urd	-5211
zed	-5212
bles	-5213
▁clo	-5214
▁dwar	-5215
▁bunch	-5216
▁swall	-5217
▁filthy	-5218
icip	-5219
▁cub	-5220
▁spr	-5221
going	-5222
unted	-5223
▁forb	-5224
▁trem	-5225
▁rates	-5226
▁agents	-5227
▁deaths	-5228
▁granny	-5229
▁prepar	-5230
▁served	-5231
▁priority	-5232
rier	-5233
ulty	-5234
alian	-5235
▁edge	-5236
▁forms	-5237
▁outta	-5238
▁stake	-5239
▁indian	-5240
▁instinct	-5241
▁efficient	-5242
▁infection	-5243
ini	-5244
ingly	-5245
▁obst	-5246
▁thom	-5247
▁zero	-5248
▁cargo	-5249
▁assets	-5250
▁scheme	-5251
▁supper	-5252
▁switch	-5253
▁repeated	-5254
▁financing	-5255
▁undertaking	-5256
bly	-5257
▁pit	-5258
▁flag	-5259
▁loan	-5260
▁phar	-5261
▁pros	-5262
▁soph	-5263
▁devil	-5264
▁chapter	-5265
▁foolish	-5266
▁intended	-5267
▁payments	-5268
ifications	-5269
▁kal	-5270
▁expos	-5271
▁sarah	-5272
▁vision	-5273
▁healthy	-5274
▁realize	-5275
▁schools	-5276
▁americans	-5277
▁automatic	-5278
▁embarrassing	-5279
hi	-5280
ora	-5281
oul	-5282
wide	-5283
▁scen	-5284
▁colour	-5285
▁launch	-5286
▁eastern	-5287
▁leaders	-5288
▁attacking	-5289
▁influence	-5290
▁strengthe	-5291
cut	-5292
ula	-5293
ller	-5294
works	-5295
▁hook	-5296
▁mask	-5297
▁nick	-5298
▁pale	-5299
▁adult	-5300
▁liver	-5301
▁moves	-5302
▁nodded	-5303
▁parking	-5304
▁creating	-5305
01	-5306
iel	-5307
hetic	-5308
▁fulf	-5309
iously	-5310
▁atmosp	-5311
▁voices	-5312
▁explained	-5313
▁radiation	-5314
▁submitted	-5315
▁temporary	-5316
▁objectives	-5317
▁personally	-5318
▁threatened	-5319
▁sab	-5320
terly	-5321
ulting	-5322
▁boots	-5323
▁hydro	-5324
▁babies	-5325
▁accused	-5326
▁british	-5327
▁identify	-5328
▁sentence	-5329
▁survived	-5330
atch	-5331
utes	-5332
▁jaw	-5333
erted	-5334
▁clar	-5335
omfort	-5336
▁flash	-5337
▁guest	-5338
▁circle	-5339
▁speaks	-5340
rastruct	-5341
▁dealing	-5342
▁requested	-5343
ba	-5344
▁py	-5345
mark	-5346
▁mos	-5347
▁spo	-5348
▁grim	-5349
▁crowd	-5350
▁louis	-5351
iciency	-5352
▁boring	-5353
▁criter	-5354
▁abandoned	-5355
lla	-5356
▁las	-5357
▁rod	-5358
▁gaze	-5359
▁weal	-5360
▁grace	-5361
▁robot	-5362
▁corpse	-5363
▁planes	-5364
▁alternative	-5365
▁infrastruct	-5366
▁administrative	-5367
ru	-5368
asm	-5369
▁km	-5370
aker	-5371
▁amend	-5372
▁trous	-5373
▁speech	-5374
▁sports	-5375
▁includes	-5376
▁supplies	-5377
▁unbeliev	-5378
▁detective	-5379
▁materials	-5380
▁newspaper	-5381
▁recommended	-5382
▁extraordinary	-5383
ja	-5384
▁ul	-5385
▁bru	-5386
ecess	-5387
hamed	-5388
umbled	-5389
▁alert	-5390
▁beach	-5391
▁folder	-5392
▁manner	-5393
▁revealed	-5394
▁determine	-5395
▁immediate	-5396
▁technologies	-5397
orter	-5398
▁kore	-5399
▁david	-5400
▁folks	-5401
▁weigh	-5402
▁sacrif	-5403
▁appreci	-5404
▁compens	-5405
▁courage	-5406
▁pension	-5407
▁approxim	-5408
▁learning	-5409
▁overnight	-5410
▁searching	-5411
▁consequences	-5412
▁pad	-5413
estic	-5414
iring	-5415
rical	-5416
▁goal	-5417
▁prick	-5418
▁benefic	-5419
▁destiny	-5420
▁transpa	-5421
▁twisted	-5422
▁neighborhood	-5423
▁occasionally	-5424
▁significantly	-5425
oe	-5426
ece	-5427
gor	-5428
▁grav	-5429
▁solve	-5430
▁brings	-5431
▁excess	-5432
▁parent	-5433
▁ripped	-5434
▁figures	-5435
▁warrior	-5436
▁celebrate	-5437
net	-5438
ints	-5439
▁bol	-5440
▁esc	-5441
▁lap	-5442
ivers	-5443
ipping	-5444
▁gorge	-5445
▁print	-5446
▁distant	-5447
osed	-5448
rend	-5449
they	-5450
▁bay	-5451
▁bye	-5452
▁pip	-5453
▁vul	-5454
▁clock	-5455
▁pills	-5456
▁causes	-5457
▁exists	-5458
▁fields	-5459
▁monkey	-5460
▁trained	-5461
▁trusted	-5462
▁missiles	-5463
▁satellite	-5464
▁restrictions	-5465
ket	-5466
▁bike	-5467
▁thir	-5468
▁blast	-5469
▁opens	-5470
▁africa	-5471
▁chocol	-5472
▁degrees	-5473
▁throwing	-5474
▁medicines	-5475
▁regularly	-5476
▁manufacture	-5477
het	-5478
ilit	-5479
▁ash	-5480
▁mig	-5481
▁fart	-5482
▁lifet	-5483
▁songs	-5484
▁firing	-5485
▁waters	-5486
▁default	-5487
▁identity	-5488
▁religion	-5489
▁whenever	-5490
▁determined	-5491
ox	-5492
▁eur	-5493
rency	-5494
▁push	-5495
▁span	-5496
▁guilt	-5497
▁royal	-5498
▁buried	-5499
▁hurting	-5500
▁package	-5501
▁sounded	-5502
▁constant	-5503
▁continues	-5504
▁programme	-5505
ros	-5506
ums	-5507
load	-5508
uals	-5509
▁oxy	-5510
▁tas	-5511
▁lake	-5512
inating	-5513
▁impress	-5514
▁produced	-5515
▁relation	-5516
▁visiting	-5517
▁regarding	-5518
▁standards	-5519
▁hyper	-5520
▁politics	-5521
▁correspond	-5522
▁ln	-5523
▁aust	-5524
▁chill	-5525
▁corrup	-5526
▁formed	-5527
▁medium	-5528
▁temple	-5529
▁revenue	-5530
▁western	-5531
ata	-5532
▁gy	-5533
▁haz	-5534
uable	-5535
▁fasc	-5536
▁wins	-5537
▁aston	-5538
▁plays	-5539
▁talks	-5540
▁thrown	-5541
▁drawing	-5542
▁organis	-5543
▁witnesses	-5544
▁destruction	-5545
ran	-5546
▁fbi	-5547
▁lan	-5548
▁wre	-5549
▁inha	-5550
▁absurd	-5551
▁potato	-5552
▁ashamed	-5553
▁crossed	-5554
▁instant	-5555
▁murders	-5556
▁accounts	-5557
▁adequate	-5558
▁meetings	-5559
▁confirmed	-5560
▁threatening	-5561
▁lt	-5562
▁jun	-5563
▁murm	-5564
▁bombs	-5565
▁mothers	-5566
▁succeed	-5567
▁targets	-5568
▁dreaming	-5569
▁oct	-5570
ician	-5571
▁deny	-5572
▁trap	-5573
ashing	-5574
▁franc	-5575
▁horiz	-5576
▁expand	-5577
▁facing	-5578
▁lesson	-5579
▁narrow	-5580
▁rolled	-5581
▁highest	-5582
▁muscles	-5583
▁richard	-5584
▁teachers	-5585
▁childhood	-5586
ford	-5587
▁dump	-5588
▁flow	-5589
▁noon	-5590
▁vall	-5591
▁falls	-5592
▁henry	-5593
▁owner	-5594
▁proved	-5595
▁warned	-5596
▁closely	-5597
▁curious	-5598
▁picking	-5599
▁belonged	-5600
▁deserves	-5601
▁kidnapped	-5602
▁supported	-5603
▁communications	-5604
▁alb	-5605
▁rac	-5606
▁pride	-5607
▁jealous	-5608
rep	-5609
ores	-5610
▁advis	-5611
▁flames	-5612
▁joined	-5613
▁offers	-5614
▁phones	-5615
▁damaged	-5616
▁kingdom	-5617
▁knocked	-5618
▁stranger	-5619
▁reference	-5620
▁importance	-5621
jo	-5622
▁wip	-5623
▁rage	-5624
▁1,000	-5625
▁presc	-5626
▁victor	-5627
▁northern	-5628
▁accordance	-5629
▁considerable	-5630
uge	-5631
adem	-5632
unte	-5633
▁ded	-5634
▁eth	-5635
▁wag	-5636
▁cave	-5637
▁wing	-5638
erable	-5639
mbling	-5640
▁coach	-5641
▁minds	-5642
▁library	-5643
▁suitable	-5644
▁trousers	-5645
▁permanent	-5646
▁transform	-5647
▁expenditure	-5648
▁independent	-5649
acher	-5650
▁boun	-5651
▁mike	-5652
▁ward	-5653
▁annex	-5654
▁fever	-5655
▁loose	-5656
▁remark	-5657
▁culture	-5658
▁license	-5659
▁missile	-5660
▁sources	-5661
▁understanding	-5662
ova	-5663
▁23	-5664
outs	-5665
▁mam	-5666
▁nig	-5667
▁drizz	-5668
▁harsh	-5669
▁afford	-5670
▁frozen	-5671
▁hunger	-5672
▁infect	-5673
▁retire	-5674
▁russia	-5675
▁robbery	-5676
▁furthermore	-5677
mit	-5678
bled	-5679
ston	-5680
▁pir	-5681
▁roll	-5682
▁shan	-5683
▁teen	-5684
▁fires	-5685
▁paint	-5686
▁shook	-5687
▁spect	-5688
▁stairs	-5689
▁wooden	-5690
▁accepted	-5691
▁approved	-5692
▁policies	-5693
▁recorded	-5694
▁broadcast	-5695
▁supporting	-5696
tin	-5697
hips	-5698
uate	-5699
▁fest	-5700
▁fist	-5701
▁rope	-5702
▁click	-5703
▁decre	-5704
▁insect	-5705
▁engines	-5706
▁torture	-5707
▁violent	-5708
▁discover	-5709
▁accordingly	-5710
50	-5711
▁fag	-5712
▁rit	-5713
there	-5714
▁echo	-5715
▁gorgeous	-5716
▁obtained	-5717
▁dna	-5718
▁pant	-5719
▁quot	-5720
▁vacc	-5721
lessly	-5722
▁elder	-5723
▁accompl	-5724
▁maintain	-5725
▁applicable	-5726
▁+	-5727
▁flex	-5728
▁frag	-5729
▁cheer	-5730
▁graph	-5731
▁parli	-5732
▁linked	-5733
▁region	-5734
▁deliber	-5735
▁excited	-5736
▁methods	-5737
▁specify	-5738
▁volunte	-5739
▁younger	-5740
▁recovery	-5741
▁framework	-5742
anda	-5743
uits	-5744
▁fan	-5745
fying	-5746
riers	-5747
▁buck	-5748
▁chef	-5749
▁cure	-5750
▁dirt	-5751
▁fred	-5752
▁james	-5753
▁roman	-5754
▁castle	-5755
▁loaded	-5756
▁losses	-5757
▁unique	-5758
▁vessels	-5759
ema	-5760
sha	-5761
zer	-5762
fire	-5763
▁dun	-5764
▁mun	-5765
erous	-5766
icing	-5767
lines	-5768
▁moist	-5769
▁rarely	-5770
▁factory	-5771
▁focused	-5772
▁pulling	-5773
abilities	-5774
▁advanced	-5775
▁friendly	-5776
▁whispered	-5777
▁unbelievable	-5778
▁80	-5779
▁los	-5780
▁pee	-5781
onents	-5782
▁burden	-5783
▁grabbed	-5784
▁website	-5785
▁muttered	-5786
▁passenger	-5787
▁terrorist	-5788
arian	-5789
rehen	-5790
▁elim	-5791
▁campa	-5792
▁depth	-5793
▁fleet	-5794
▁moron	-5795
▁desert	-5796
▁knight	-5797
▁complain	-5798
▁lifetime	-5799
▁schedule	-5800
▁software	-5801
▁somethin	-5802
▁touching	-5803
▁assistant	-5804
▁chocolate	-5805
▁punishment	-5806
▁installation	-5807
ria	-5808
▁carl	-5809
▁exit	-5810
▁ware	-5811
▁fatal	-5812
▁freak	-5813
▁irrit	-5814
▁stable	-5815
▁experts	-5816
▁existence	-5817
bre	-5818
iac	-5819
▁ow	-5820
irts	-5821
oard	-5822
▁evac	-5823
▁isol	-5824
▁neut	-5825
▁tact	-5826
▁smith	-5827
ensions	-5828
holders	-5829
▁advent	-5830
▁feared	-5831
▁leaned	-5832
▁muscle	-5833
▁explode	-5834
▁italian	-5835
▁lawyers	-5836
▁domestic	-5837
▁parliament	-5838
com	-5839
ales	-5840
▁gle	-5841
▁soup	-5842
▁stays	-5843
▁conver	-5844
▁duties	-5845
▁israel	-5846
▁patrol	-5847
▁divorce	-5848
▁consumer	-5849
▁valuable	-5850
ano	-5851
iry	-5852
acks	-5853
▁ped	-5854
▁diss	-5855
▁tiss	-5856
▁yard	-5857
▁santa	-5858
▁dialog	-5859
▁invite	-5860
▁strict	-5861
▁disorders	-5862
▁providing	-5863
onn	-5864
▁kg	-5865
▁hers	-5866
▁stun	-5867
▁alloc	-5868
▁bless	-5869
▁finds	-5870
▁kinda	-5871
▁mixed	-5872
▁pharm	-5873
▁checking	-5874
▁opposite	-5875
▁survival	-5876
▁approximately	-5877
▁kat	-5878
▁lungs	-5879
▁tatto	-5880
▁toler	-5881
▁absence	-5882
▁chasing	-5883
▁england	-5884
▁farmers	-5885
▁campaign	-5886
▁indicate	-5887
▁functions	-5888
▁controlled	-5889
▁photographs	-5890
bow	-5891
▁sem	-5892
asant	-5893
inger	-5894
▁acts	-5895
▁diagn	-5896
▁flame	-5897
▁forth	-5898
▁gates	-5899
▁magaz	-5900
▁stiff	-5901
▁style	-5902
▁butter	-5903
▁washed	-5904
▁sweetie	-5905
▁visible	-5906
▁fighters	-5907
▁register	-5908
▁relating	-5909
▁unnecess	-5910
▁pregnancy	-5911
▁principle	-5912
▁receiving	-5913
▁obligations	-5914
▁gam	-5915
▁hmm	-5916
▁raw	-5917
▁papa	-5918
▁tied	-5919
▁cryst	-5920
▁fract	-5921
▁drizzt	-5922
▁defined	-5923
▁subsequ	-5924
▁bastards	-5925
▁romantic	-5926
▁difficulties	-5927
icit	-5928
odes	-5929
▁furn	-5930
▁poly	-5931
▁thee	-5932
▁abduc	-5933
▁damned	-5934
▁harder	-5935
▁peculi	-5936
▁tracks	-5937
▁hitting	-5938
▁settled	-5939
▁trapped	-5940
▁stronger	-5941
▁arrangements	-5942
mn	-5943
tr	-5944
not	-5945
ador	-5946
omic	-5947
umes	-5948
▁anx	-5949
▁fet	-5950
▁fib	-5951
▁gig	-5952
▁tie	-5953
▁virus	-5954
▁oxygen	-5955
▁sevent	-5956
▁version	-5957
▁attached	-5958
▁creation	-5959
▁visitors	-5960
▁delivered	-5961
▁personnel	-5962
▁destroying	-5963
ala	-5964
amic	-5965
bell	-5966
ship	-5967
itors	-5968
▁vice	-5969
▁toxic	-5970
acement	-5971
▁hearts	-5972
▁marked	-5973
▁repair	-5974
▁customs	-5975
▁extended	-5976
▁favorite	-5977
▁peculiar	-5978
▁medicinal	-5979
▁reporting	-5980
▁terrified	-5981
▁permission	-5982
▁effectively	-5983
▁jen	-5984
ppers	-5985
uated	-5986
▁analy	-5987
▁italy	-5988
illance	-5989
▁advert	-5990
▁honour	-5991
▁institutions	-5992
ext	-5993
gun	-5994
▁bent	-5995
▁blew	-5996
▁navy	-5997
▁shat	-5998
▁unre	-5999
▁climb	-6000
▁decor	-6001
rations	-6002
▁colors	-6003
▁convin	-6004
▁subsid	-6005
▁comment	-6006
▁stations	-6007
▁universe	-6008
▁challenge	-6009
▁remaining	-6010
-4	-6011
▁pump	-6012
▁soil	-6013
inking	-6014
usions	-6015
▁audio	-6016
▁hates	-6017
▁softly	-6018
▁thomas	-6019
▁volume	-6020
▁kissing	-6021
▁emissions	-6022
▁atmosphere	-6023
▁programmes	-6024
▁infrastructure	-6025
pha	-6026
nels	-6027
▁hes	-6028
▁nar	-6029
anged	-6030
▁glow	-6031
urally	-6032
▁knock	-6033
▁phase	-6034
▁academ	-6035
▁channel	-6036
▁passing	-6037
▁policem	-6038
▁interrog	-6039
▁regarded	-6040
▁introduce	-6041
▁background	-6042
▁efficiency	-6043
▁profession	-6044
▁surveillance	-6045
▁27	-6046
▁ts	-6047
wind	-6048
▁aug	-6049
▁sed	-6050
▁diet	-6051
▁beard	-6052
▁chain	-6053
▁shake	-6054
attered	-6055
▁deadly	-6056
▁convinced	-6057
▁interests	-6058
▁sacrifice	-6059
▁uncertain	-6060
▁industrial	-6061
imal	-6062
izes	-6063
▁gif	-6064
▁por	-6065
ander	-6066
inals	-6067
▁cord	-6068
▁deck	-6069
▁salt	-6070
ourage	-6071
▁pussy	-6072
▁defeat	-6073
▁contest	-6074
▁approval	-6075
▁happiness	-6076
▁processing	-6077
▁surrounded	-6078
car	-6079
athy	-6080
bits	-6081
stit	-6082
eters	-6083
orted	-6084
▁lung	-6085
▁mild	-6086
▁airpl	-6087
▁marks	-6088
▁appeal	-6089
▁attend	-6090
▁confess	-6091
▁criteria	-6092
▁examined	-6093
▁objective	-6094
▁collection	-6095
▁mysterious	-6096
▁90	-6097
ette	-6098
▁doc	-6099
▁dyn	-6100
water	-6101
while	-6102
iments	-6103
▁trace	-6104
▁shared	-6105
▁cameras	-6106
▁periods	-6107
▁shortly	-6108
▁audience	-6109
▁counting	-6110
▁detailed	-6111
▁purchase	-6112
▁cigarette	-6113
▁appreciate	-6114
▁continuing	-6115
▁opportunities	-6116
sm	-6117
izz	-6118
▁lem	-6119
▁arth	-6120
▁aven	-6121
▁cann	-6122
▁mode	-6123
▁seed	-6124
▁cable	-6125
▁enhan	-6126
▁wizard	-6127
▁climate	-6128
▁intense	-6129
▁mystery	-6130
▁elements	-6131
▁exciting	-6132
▁murmured	-6133
▁sensitive	-6134
▁incredibly	-6135
▁washington	-6136
box	-6137
umps	-6138
▁ske	-6139
▁tha	-6140
▁wha	-6141
▁mole	-6142
▁poll	-6143
▁slid	-6144
▁unha	-6145
itable	-6146
▁cares	-6147
▁coinc	-6148
▁homes	-6149
▁inner	-6150
▁whist	-6151
▁unfair	-6152
▁fortune	-6153
▁refused	-6154
▁thunder	-6155
▁believes	-6156
▁contacts	-6157
▁passport	-6158
▁regional	-6159
▁suspects	-6160
▁interrupt	-6161
▁preparing	-6162
▁jet	-6163
▁les	-6164
▁lip	-6165
eline	-6166
▁brut	-6167
▁loyal	-6168
▁notes	-6169
▁saint	-6170
▁teams	-6171
▁desire	-6172
▁deleted	-6173
▁passion	-6174
▁protest	-6175
▁tickets	-6176
▁exploded	-6177
▁practices	-6178
▁approaching	-6179
▁examination	-6180
fa	-6181
imp	-6182
▁sons	-6183
▁wise	-6184
▁multi	-6185
▁slave	-6186
▁theft	-6187
▁agency	-6188
▁decade	-6189
▁hatred	-6190
▁federal	-6191
▁landing	-6192
▁session	-6193
▁experiment	-6194
▁embarrassed	-6195
fs	-6196
eks	-6197
▁si	-6198
uine	-6199
▁bang	-6200
▁menu	-6201
▁rome	-6202
▁tables	-6203
▁amounts	-6204
▁recover	-6205
▁improved	-6206
▁launched	-6207
▁uncomfort	-6208
▁increasingly	-6209
▁ira	-6210
▁tex	-6211
▁habit	-6212
▁trave	-6213
▁witch	-6214
▁aboard	-6215
▁owners	-6216
▁incident	-6217
▁shopping	-6218
▁producers	-6219
▁stretched	-6220
▁innovation	-6221
▁reasonable	-6222
▁operational	-6223
ni	-6224
zo	-6225
▁bee	-6226
▁cin	-6227
▁pie	-6228
▁tob	-6229
▁tony	-6230
▁mercy	-6231
▁setup	-6232
▁casual	-6233
▁blowing	-6234
▁finance	-6235
▁funeral	-6236
▁assassin	-6237
▁exercise	-6238
▁terribly	-6239
▁vanished	-6240
▁solutions	-6241
▁resistance	-6242
die	-6243
ira	-6244
▁mud	-6245
based	-6246
▁dare	-6247
▁dece	-6248
▁puzz	-6249
▁seal	-6250
▁sets	-6251
▁faced	-6252
▁crimes	-6253
▁crashed	-6254
▁magical	-6255
▁studied	-6256
▁behavior	-6257
▁offering	-6258
▁unlikely	-6259
▁traveling	-6260
▁agricultural	-6261
▁specifically	-6262
icy	-6263
oma	-6264
▁ja	-6265
foot	-6266
▁cru	-6267
▁une	-6268
tical	-6269
usive	-6270
▁fier	-6271
▁phen	-6272
▁zone	-6273
employ	-6274
teries	-6275
▁candy	-6276
▁nurse	-6277
▁roads	-6278
▁format	-6279
▁string	-6280
▁vampire	-6281
▁division	-6282
▁struggle	-6283
▁gradually	-6284
▁suspected	-6285
▁constantly	-6286
▁1,	-6287
▁26	-6288
iver	-6289
keep	-6290
alled	-6291
▁auto	-6292
▁bind	-6293
▁flav	-6294
▁taxi	-6295
▁depos	-6296
▁jewel	-6297
▁exempt	-6298
▁intent	-6299
▁loving	-6300
▁permit	-6301
▁refuse	-6302
onscious	-6303
▁judgment	-6304
▁shouting	-6305
▁christian	-6306
▁directory	-6307
▁officials	-6308
▁situations	-6309
▁combination	-6310
▁improvement	-6311
ays	-6312
col	-6313
▁70	-6314
udes	-6315
▁bub	-6316
▁dys	-6317
ublic	-6318
▁mall	-6319
▁tear	-6320
▁tone	-6321
▁reput	-6322
▁flower	-6323
entially	-6324
▁element	-6325
▁located	-6326
▁spanish	-6327
▁comments	-6328
▁frequency	-6329
▁containing	-6330
▁electrical	-6331
▁inspection	-6332
▁substantial	-6333
▁traditional	-6334
asp	-6335
uty	-6336
quar	-6337
order	-6338
▁ryan	-6339
▁jokes	-6340
▁recip	-6341
▁vimes	-6342
▁martin	-6343
▁emotions	-6344
▁strangers	-6345
hu	-6346
wr	-6347
aps	-6348
itz	-6349
uro	-6350
▁ko	-6351
itis	-6352
▁sod	-6353
▁fert	-6354
▁seats	-6355
▁bacter	-6356
▁genuine	-6357
▁midnight	-6358
▁connections	-6359
▁negotiations	-6360
ald	-6361
eyed	-6362
▁eats	-6363
▁fled	-6364
▁admir	-6365
▁danny	-6366
▁drank	-6367
▁fraud	-6368
▁noted	-6369
▁stare	-6370
▁intend	-6371
▁slipped	-6372
▁sustain	-6373
▁conference	-6374
▁difficulty	-6375
▁introduced	-6376
▁scientists	-6377
▁implemented	-6378
att	-6379
▁dipl	-6380
▁junk	-6381
▁ment	-6382
▁puts	-6383
▁facts	-6384
ounting	-6385
▁backup	-6386
▁errors	-6387
▁formal	-6388
▁landed	-6389
▁ticket	-6390
▁tunnel	-6391
▁applies	-6392
▁borders	-6393
▁context	-6394
▁divided	-6395
▁encoura	-6396
▁rolling	-6397
▁whisper	-6398
▁diseases	-6399
▁thorough	-6400
▁addressed	-6401
▁secretary	-6402
▁historical	-6403
▁accompanied	-6404
▁organization	-6405
..	-6406
this	-6407
istan	-6408
▁knee	-6409
▁tang	-6410
▁navig	-6411
▁dragged	-6412
▁objects	-6413
▁primary	-6414
▁quarter	-6415
▁utterly	-6416
▁yelling	-6417
▁delivery	-6418
▁determin	-6419
▁forehead	-6420
▁informed	-6421
▁sunlight	-6422
▁accidents	-6423
▁exception	-6424
▁impressed	-6425
▁prevented	-6426
▁unnecessary	-6427
30	-6428
cont	-6429
rain	-6430
▁lux	-6431
gered	-6432
▁corn	-6433
▁emer	-6434
▁entit	-6435
▁loans	-6436
▁param	-6437
▁purse	-6438
▁stair	-6439
▁aspect	-6440
▁begins	-6441
▁decent	-6442
▁favour	-6443
▁humili	-6444
▁sample	-6445
▁shaking	-6446
▁theater	-6447
▁treasure	-6448
▁conscious	-6449
▁congratulations	-6450
two	-6451
▁mu	-6452
phan	-6453
rene	-6454
zzzz	-6455
▁brow	-6456
▁disk	-6457
▁goin	-6458
▁sole	-6459
▁thou	-6460
▁cattle	-6461
▁sealed	-6462
▁counsel	-6463
▁raising	-6464
▁employee	-6465
▁features	-6466
▁threaten	-6467
▁centuries	-6468
▁properties	-6469
ux	-6470
cap	-6471
omy	-6472
emia	-6473
▁cats	-6474
▁sequ	-6475
▁boxes	-6476
▁exhib	-6477
▁grief	-6478
▁revol	-6479
▁adults	-6480
▁dollar	-6481
▁fundam	-6482
▁proven	-6483
▁artific	-6484
▁pretend	-6485
▁wasting	-6486
▁republic	-6487
▁regulations	-6488
cked	-6489
long	-6490
▁unw	-6491
mbled	-6492
▁mile	-6493
imeter	-6494
▁incor	-6495
▁shift	-6496
▁squee	-6497
ception	-6498
▁behavi	-6499
▁doubts	-6500
▁stress	-6501
▁swords	-6502
▁painted	-6503
▁spotted	-6504
▁resource	-6505
▁studying	-6506
▁criminals	-6507
▁installed	-6508
▁consumption	-6509
▁underground	-6510
iro	-6511
acon	-6512
▁ank	-6513
▁jac	-6514
▁rhy	-6515
▁tel	-6516
▁vel	-6517
▁cunt	-6518
▁oral	-6519
▁rode	-6520
elines	-6521
▁conqu	-6522
▁jimmy	-6523
▁ending	-6524
▁mirror	-6525
▁senior	-6526
▁steady	-6527
▁valley	-6528
▁vulner	-6529
▁wishes	-6530
▁seeking	-6531
▁mistaken	-6532
.6	-6533
gi	-6534
iam	-6535
know	-6536
▁400	-6537
pless	-6538
▁mood	-6539
▁oath	-6540
▁proc	-6541
▁blond	-6542
▁spare	-6543
▁estate	-6544
▁johnny	-6545
▁disturb	-6546
▁examine	-6547
▁disaster	-6548
▁enjoying	-6549
▁networks	-6550
▁elections	-6551
▁revolution	-6552
▁appointment	-6553
▁distribution	-6554
99	-6555
nam	-6556
nic	-6557
sty	-6558
▁ot	-6559
▁uk	-6560
ingu	-6561
umin	-6562
▁bob	-6563
ifies	-6564
▁jews	-6565
▁rang	-6566
▁greet	-6567
▁immig	-6568
▁neare	-6569
▁sheep	-6570
▁carbon	-6571
▁fights	-6572
▁spaces	-6573
▁thread	-6574
▁facilit	-6575
▁clinical	-6576
▁warriors	-6577
▁comprehen	-6578
▁reactions	-6579
▁developing	-6580
uffs	-6581
▁gut	-6582
▁hid	-6583
▁jon	-6584
▁mol	-6585
lying	-6586
shirt	-6587
▁bowl	-6588
▁tale	-6589
ancing	-6590
atched	-6591
▁nerve	-6592
▁prime	-6593
▁manual	-6594
▁stabil	-6595
▁emotion	-6596
▁sensors	-6597
ervations	-6598
▁crossing	-6599
▁precious	-6600
▁strangely	-6601
▁institution	-6602
▁configuration	-6603
sey	-6604
uma	-6605
▁ml	-6606
itty	-6607
lock	-6608
oral	-6609
▁fee	-6610
▁jar	-6611
▁lee	-6612
itals	-6613
uding	-6614
▁plug	-6615
▁porn	-6616
▁emper	-6617
▁holes	-6618
▁moral	-6619
▁sites	-6620
▁beings	-6621
▁ignore	-6622
▁adopted	-6623
▁dreamed	-6624
▁infring	-6625
▁screams	-6626
▁shining	-6627
▁requests	-6628
▁described	-6629
▁desperate	-6630
▁displayed	-6631
▁positions	-6632
▁resulting	-6633
▁suggested	-6634
▁warehouse	-6635
▁approached	-6636
▁components	-6637
▁facilities	-6638
▁terrorists	-6639
▁35	-6640
▁bio	-6641
omatic	-6642
▁hopes	-6643
▁meals	-6644
▁jewish	-6645
▁mister	-6646
▁claimed	-6647
▁endless	-6648
▁reducing	-6649
▁description	-6650
ado	-6651
▁32	-6652
▁unp	-6653
▁alle	-6654
▁damp	-6655
▁rust	-6656
▁gross	-6657
▁souls	-6658
athered	-6659
▁arrival	-6660
▁avoided	-6661
▁exposed	-6662
▁painful	-6663
▁civilian	-6664
▁naturally	-6665
▁recording	-6666
▁cigarettes	-6667
▁comparison	-6668
▁suspicious	-6669
▁identification	-6670
.7	-6671
▁28	-6672
kind	-6673
lict	-6674
▁ted	-6675
lands	-6676
▁symp	-6677
▁czech	-6678
▁hills	-6679
▁madam	-6680
▁snake	-6681
▁unple	-6682
▁kissed	-6683
▁sought	-6684
▁ceiling	-6685
▁choices	-6686
▁conduct	-6687
▁lessons	-6688
▁typical	-6689
▁protocol	-6690
▁literally	-6691
mal	-6692
urt	-6693
▁fu	-6694
gage	-6695
mate	-6696
▁iraq	-6697
▁hated	-6698
▁prize	-6699
▁sanct	-6700
unction	-6701
inations	-6702
▁emperor	-6703
▁samples	-6704
▁convince	-6705
▁corporate	-6706
▁suspicion	-6707
▁kidnapping	-6708
▁concentration	-6709
eff	-6710
now	-6711
ola	-6712
care	-6713
inity	-6714
▁asse	-6715
▁fund	-6716
▁jess	-6717
▁june	-6718
▁corps	-6719
▁shell	-6720
▁sheri	-6721
▁vital	-6722
▁feeding	-6723
▁highway	-6724
▁pushing	-6725
▁servants	-6726
▁mechanism	-6727
▁operators	-6728
▁obligation	-6729
hem	-6730
ails	-6731
▁que	-6732
▁sept	-6733
uction	-6734
▁guide	-6735
▁demons	-6736
▁wealth	-6737
standing	-6738
▁adverse	-6739
▁cultural	-6740
▁dreadful	-6741
▁reaching	-6742
▁published	-6743
▁previously	-6744
ios	-6745
nie	-6746
▁31	-6747
▁cad	-6748
acked	-6749
▁asks	-6750
▁spin	-6751
▁burns	-6752
▁holds	-6753
▁sauce	-6754
▁fairly	-6755
▁seated	-6756
▁tattoo	-6757
▁tissue	-6758
▁eternal	-6759
▁smashed	-6760
▁announce	-6761
▁infected	-6762
▁sparhawk	-6763
▁vampires	-6764
▁discussion	-6765
▁friendship	-6766
▁generation	-6767
▁transferred	-6768
rey	-6769
van	-6770
berg	-6771
onde	-6772
▁rig	-6773
▁wil	-6774
poses	-6775
▁core	-6776
▁poet	-6777
▁toss	-6778
uggage	-6779
▁cough	-6780
▁mouse	-6781
▁penet	-6782
▁tasks	-6783
▁trash	-6784
▁basket	-6785
▁empire	-6786
▁marine	-6787
▁sacred	-6788
▁volunt	-6789
▁anticip	-6790
▁unhappy	-6791
▁willing	-6792
▁sometime	-6793
▁separated	-6794
▁reputation	-6795
▁exceptional	-6796
▁developments	-6797
▁transactions	-6798
ago	-6799
lan	-6800
mare	-6801
mony	-6802
roll	-6803
yard	-6804
▁cel	-6805
▁math	-6806
▁pays	-6807
▁tues	-6808
▁arrow	-6809
▁blown	-6810
▁cloak	-6811
▁thumb	-6812
▁dating	-6813
▁extent	-6814
▁princi	-6815
▁battery	-6816
▁factors	-6817
▁hostile	-6818
▁ignored	-6819
▁luggage	-6820
▁tuesday	-6821
▁wrapped	-6822
▁confused	-6823
▁agreements	-6824
▁laboratory	-6825
▁intelligent	-6826
▁registration	-6827
▁relationships	-6828
fin	-6829
ris	-6830
isms	-6831
▁marg	-6832
▁muse	-6833
ateful	-6834
▁appet	-6835
▁bored	-6836
▁march	-6837
▁surge	-6838
▁thief	-6839
▁tooth	-6840
▁artist	-6841
▁idiots	-6842
▁insult	-6843
▁legend	-6844
▁rabbit	-6845
▁cleaned	-6846
▁existed	-6847
▁grounds	-6848
▁profile	-6849
▁admitted	-6850
▁expenses	-6851
▁monsters	-6852
▁neighbors	-6853
▁trembling	-6854
▁frequently	-6855
▁uncomfortable	-6856
illa	-6857
reek	-6858
▁gim	-6859
holes	-6860
▁fond	-6861
▁pigs	-6862
▁drown	-6863
▁invis	-6864
▁salad	-6865
▁bitter	-6866
▁blocks	-6867
▁fisher	-6868
▁gender	-6869
▁winner	-6870
▁blocked	-6871
▁equally	-6872
▁players	-6873
▁benefici	-6874
▁climbing	-6875
▁emotional	-6876
▁yourselves	-6877
sia	-6878
▁nom	-6879
▁rip	-6880
▁april	-6881
▁fifth	-6882
▁associ	-6883
▁plates	-6884
▁battles	-6885
▁drivers	-6886
▁enforce	-6887
▁pressed	-6888
▁sheriff	-6889
▁captured	-6890
▁improving	-6891
▁signature	-6892
▁unpleasant	-6893
▁differently	-6894
eed	-6895
ipt	-6896
mans	-6897
oust	-6898
▁ros	-6899
agers	-6900
▁barb	-6901
▁caps	-6902
▁lied	-6903
▁rush	-6904
▁scale	-6905
▁swung	-6906
▁theat	-6907
▁wears	-6908
▁listed	-6909
▁phenom	-6910
▁privacy	-6911
▁elsewhere	-6912
▁candidates	-6913
▁impression	-6914
▁principles	-6915
▁recognized	-6916
▁consideration	-6917
▁45	-6918
oles	-6919
▁lis	-6920
▁bush	-6921
▁duck	-6922
▁inev	-6923
▁nest	-6924
▁rape	-6925
▁slam	-6926
istent	-6927
orable	-6928
▁billy	-6929
▁contr	-6930
▁india	-6931
▁pulse	-6932
▁beaten	-6933
▁digital	-6934
▁evident	-6935
▁genetic	-6936
▁popular	-6937
▁swiftly	-6938
▁apparent	-6939
▁category	-6940
▁facility	-6941
▁opponent	-6942
▁nightmare	-6943
20	-6944
ida	-6945
lar	-6946
mun	-6947
▁mcc	-6948
▁mit	-6949
ville	-6950
▁july	-6951
▁matt	-6952
▁pour	-6953
▁lover	-6954
▁simon	-6955
▁spite	-6956
▁wiped	-6957
▁script	-6958
▁turkey	-6959
▁assumed	-6960
▁dismiss	-6961
▁exhaust	-6962
▁honored	-6963
▁routine	-6964
▁conflict	-6965
▁delicate	-6966
▁honestly	-6967
▁imagined	-6968
▁programs	-6969
▁wherever	-6970
▁applicant	-6971
▁preparation	-6972
▁investigating	-6973
▁psychological	-6974
▁lod	-6975
▁piz	-6976
▁vib	-6977
chers	-6978
ommod	-6979
point	-6980
rants	-6981
stone	-6982
▁fees	-6983
▁plot	-6984
▁rats	-6985
▁tore	-6986
▁breed	-6987
▁august	-6988
▁column	-6989
▁tender	-6990
▁fashion	-6991
▁immense	-6992
▁threats	-6993
▁accommod	-6994
▁headache	-6995
▁injection	-6996
▁proceedings	-6997
wa	-6998
bey	-6999
face	-7000
good	-7001
wear	-7002
▁cia	-7003
achel	-7004
▁luke	-7005
▁pity	-7006
reness	-7007
▁apple	-7008
▁cliff	-7009
▁tommy	-7010
▁venge	-7011
▁abrupt	-7012
▁compos	-7013
▁deputy	-7014
▁models	-7015
▁rounds	-7016
▁trucks	-7017
ferences	-7018
ications	-7019
▁licence	-7020
▁proport	-7021
▁tension	-7022
▁cheating	-7023
▁prospect	-7024
▁startled	-7025
▁behaviour	-7026
▁replacement	-7027
▁compensation	-7028
▁consequently	-7029
-5	-7030
ami	-7031
fit	-7032
ias	-7033
lle	-7034
▁rag	-7035
oline	-7036
urred	-7037
▁inqu	-7038
▁crown	-7039
▁winds	-7040
lishing	-7041
▁copies	-7042
▁creepy	-7043
▁shower	-7044
▁wished	-7045
▁despair	-7046
▁glanced	-7047
▁distinct	-7048
▁interact	-7049
▁promises	-7050
▁lightning	-7051
▁meanwhile	-7052
▁permitted	-7053
▁celebrating	-7054
nis	-7055
wort	-7056
eping	-7057
▁beds	-7058
▁doin	-7059
▁jung	-7060
▁stir	-7061
icians	-7062
▁colon	-7063
▁mayor	-7064
▁votes	-7065
▁execut	-7066
▁harmon	-7067
▁enjoyed	-7068
▁harvest	-7069
▁helpful	-7070
▁hostage	-7071
▁estimated	-7072
▁exhausted	-7073
▁forbidden	-7074
▁interpret	-7075
▁practical	-7076
▁spreading	-7077
▁challenges	-7078
▁commitments	-7079
▁organisation	-7080
▁successfully	-7081
ona	-7082
yes	-7083
agne	-7084
fish	-7085
▁vor	-7086
istry	-7087
▁beam	-7088
▁duke	-7089
▁hood	-7090
▁intr	-7091
▁lamp	-7092
▁seas	-7093
ursday	-7094
▁deton	-7095
▁madame	-7096
▁refuge	-7097
▁relief	-7098
▁visual	-7099
▁charles	-7100
▁flashed	-7101
▁serving	-7102
▁entering	-7103
▁homicide	-7104
▁platform	-7105
▁thursday	-7106
▁basically	-7107
▁delighted	-7108
▁technique	-7109
▁characteristics	-7110
boy	-7111
ien	-7112
ito	-7113
▁29	-7114
with	-7115
▁org	-7116
▁bury	-7117
▁cuts	-7118
▁stan	-7119
▁disgr	-7120
▁fried	-7121
▁immun	-7122
▁inher	-7123
▁smugg	-7124
▁veter	-7125
ulating	-7126
▁cheeks	-7127
▁african	-7128
▁distract	-7129
▁prosecut	-7130
▁attempted	-7131
▁adjustment	-7132
▁compliance	-7133
▁convention	-7134
▁disappointed	-7135
▁recommendations	-7136
top	-7137
ares	-7138
arms	-7139
iner	-7140
▁tip	-7141
▁vom	-7142
▁jane	-7143
▁sara	-7144
▁summ	-7145
▁worn	-7146
▁choos	-7147
▁domin	-7148
▁rings	-7149
▁sixty	-7150
▁swing	-7151
umbling	-7152
▁degree	-7153
▁orange	-7154
▁classes	-7155
▁concept	-7156
▁miracle	-7157
▁accurate	-7158
▁ensuring	-7159
▁eyebrows	-7160
▁helpless	-7161
▁increases	-7162
▁interrupted	-7163
▁notification	-7164
org	-7165
rot	-7166
▁ak	-7167
▁198	-7168
▁ell	-7169
▁arts	-7170
▁cruc	-7171
▁reck	-7172
▁rick	-7173
▁robe	-7174
▁stim	-7175
encing	-7176
▁burnt	-7177
▁scope	-7178
▁virgin	-7179
▁demands	-7180
▁landsca	-7181
▁shelter	-7182
▁ceremony	-7183
▁purposes	-7184
▁confusion	-7185
▁household	-7186
azz	-7187
bra	-7188
oly	-7189
▁spy	-7190
apers	-7191
press	-7192
▁cher	-7193
▁clut	-7194
▁dign	-7195
▁trib	-7196
▁abuse	-7197
▁alley	-7198
▁cease	-7199
▁fairy	-7200
▁grade	-7201
▁manip	-7202
▁roast	-7203
▁stops	-7204
▁tanks	-7205
▁aliens	-7206
▁eleven	-7207
▁genius	-7208
▁worlds	-7209
▁caution	-7210
▁combined	-7211
▁detected	-7212
▁russians	-7213
▁swimming	-7214
▁scheduled	-7215
▁supplement	-7216
▁fundamental	-7217
vo	-7218
any	-7219
eck	-7220
▁yo	-7221
▁dol	-7222
▁fax	-7223
▁rud	-7224
▁arab	-7225
▁liar	-7226
▁slim	-7227
▁eager	-7228
▁etern	-7229
▁fence	-7230
taining	-7231
▁blonde	-7232
▁debate	-7233
▁infant	-7234
▁stocks	-7235
▁verify	-7236
▁compare	-7237
▁tablets	-7238
▁warrant	-7239
▁contents	-7240
▁goodness	-7241
▁awareness	-7242
▁satisfact	-7243
▁relatively	-7244
▁structures	-7245
hus	-7246
▁cd	-7247
ccer	-7248
oted	-7249
rete	-7250
viet	-7251
ented	-7252
▁leak	-7253
illing	-7254
▁clown	-7255
▁nails	-7256
▁mutual	-7257
▁soccer	-7258
▁stands	-7259
▁voting	-7260
▁mexican	-7261
▁spirits	-7262
▁holidays	-7263
▁unemploy	-7264
▁virtually	-7265
▁artificial	-7266
▁responding	-7267
▁technological	-7268
urg	-7269
▁ox	-7270
anch	-7271
▁pac	-7272
arded	-7273
▁scra	-7274
▁twit	-7275
coming	-7276
▁curse	-7277
▁feast	-7278
▁earned	-7279
▁noises	-7280
▁surren	-7281
▁climbed	-7282
▁motorcy	-7283
▁profits	-7284
▁regions	-7285
▁trigger	-7286
▁district	-7287
▁reminded	-7288
▁sticking	-7289
▁announced	-7290
▁gentleman	-7291
▁inspector	-7292
▁september	-7293
▁substances	-7294
▁techniques	-7295
▁authorisation	-7296
nd	-7297
tt	-7298
▁nik	-7299
akers	-7300
▁leap	-7301
▁maid	-7302
▁resid	-7303
▁wrist	-7304
▁abroad	-7305
▁engage	-7306
▁mexico	-7307
▁hallway	-7308
▁protein	-7309
▁regards	-7310
▁trading	-7311
▁updated	-7312
▁exposure	-7313
▁majority	-7314
▁proposed	-7315
▁reliable	-7316
▁recovered	-7317
▁retirement	-7318
▁enterprises	-7319
▁certificates	-7320
uv	-7321
see	-7322
hour	-7323
oped	-7324
▁fog	-7325
▁buff	-7326
▁gren	-7327
▁owns	-7328
ensity	-7329
▁mummy	-7330
▁dispos	-7331
▁drives	-7332
▁gained	-7333
▁obtain	-7334
▁prompt	-7335
▁salary	-7336
▁sheets	-7337
aneously	-7338
▁reserve	-7339
▁attitude	-7340
▁handling	-7341
▁packages	-7342
▁poisoned	-7343
▁tracking	-7344
▁primarily	-7345
▁residence	-7346
▁shattered	-7347
▁suspended	-7348
▁transmission	-7349
fia	-7350
ila	-7351
▁yu	-7352
four	-7353
town	-7354
neath	-7355
▁caes	-7356
▁dang	-7357
▁obsc	-7358
▁pile	-7359
▁ribs	-7360
▁toys	-7361
▁warn	-7362
▁whoa	-7363
▁cared	-7364
▁chuck	-7365
▁fools	-7366
▁critic	-7367
▁palace	-7368
▁tomato	-7369
▁briefly	-7370
▁crushed	-7371
▁passage	-7372
▁railway	-7373
▁dropping	-7374
▁apologies	-7375
▁arguments	-7376
▁candidate	-7377
▁indicated	-7378
▁relatives	-7379
▁individuals	-7380
▁requirement	-7381
▁deliberately	-7382
look	-7383
ogen	-7384
olve	-7385
▁comr	-7386
▁curi	-7387
▁rice	-7388
▁dried	-7389
▁gifts	-7390
▁kinds	-7391
▁marie	-7392
▁pizza	-7393
▁carpet	-7394
▁daniel	-7395
▁packed	-7396
▁riding	-7397
▁rocket	-7398
▁slaves	-7399
▁soviet	-7400
▁stored	-7401
▁mainten	-7402
▁screwed	-7403
▁grateful	-7404
▁supervis	-7405
▁invisible	-7406
▁substance	-7407
▁guidelines	-7408
▁underneath	-7409
ety	-7410
ima	-7411
ione	-7412
▁tig	-7413
▁boobs	-7414
▁cries	-7415
▁dwarf	-7416
▁fancy	-7417
▁glory	-7418
▁label	-7419
▁links	-7420
▁owned	-7421
▁wives	-7422
theless	-7423
▁garage	-7424
▁output	-7425
▁rachel	-7426
▁citizen	-7427
▁comprom	-7428
▁cookies	-7429
▁extract	-7430
▁assigned	-7431
▁basement	-7432
▁champion	-7433
▁covering	-7434
▁numerous	-7435
▁vengeance	-7436
▁disturbing	-7437
▁statistics	-7438
▁coincidence	-7439
▁experiences	-7440
ipl	-7441
tan	-7442
iece	-7443
neys	-7444
▁eve	-7445
verty	-7446
▁eleg	-7447
▁hire	-7448
▁tren	-7449
▁dough	-7450
▁hesit	-7451
▁maria	-7452
▁skill	-7453
▁ancest	-7454
▁inches	-7455
▁visits	-7456
▁doorway	-7457
▁furious	-7458
▁operate	-7459
▁sectors	-7460
▁servant	-7461
▁airplane	-7462
▁annivers	-7463
▁contrast	-7464
▁presented	-7465
▁someplace	-7466
▁complement	-7467
▁officially	-7468
▁concentrate	-7469
▁maintenance	-7470
▁corresponding	-7471
60	-7472
len	-7473
rypt	-7474
▁gab	-7475
opard	-7476
▁blaz	-7477
▁ivan	-7478
▁pace	-7479
border	-7480
▁ambul	-7481
▁brows	-7482
▁clenc	-7483
▁tobac	-7484
▁acknow	-7485
▁loudly	-7486
▁classic	-7487
▁cleared	-7488
▁heavens	-7489
▁largely	-7490
▁returns	-7491
▁savings	-7492
▁sisters	-7493
▁visited	-7494
▁meantime	-7495
▁perspect	-7496
▁gathering	-7497
▁secondary	-7498
▁impressive	-7499
▁prohibited	-7500
▁considering	-7501
▁nevertheless	-7502
your	-7503
▁alf	-7504
▁kor	-7505
▁vat	-7506
ugged	-7507
▁2012	-7508
▁caut	-7509
▁crou	-7510
▁calif	-7511
▁novel	-7512
▁optim	-7513
▁arthur	-7514
▁denied	-7515
▁nerves	-7516
▁robert	-7517
▁spider	-7518
▁thrust	-7519
▁aggress	-7520
▁elderly	-7521
▁poverty	-7522
▁guidance	-7523
▁miserable	-7524
▁proposals	-7525
▁confidential	-7526
zi	-7527
phy	-7528
abor	-7529
▁slo	-7530
▁swo	-7531
cular	-7532
▁gamb	-7533
▁gran	-7534
▁iran	-7535
▁scot	-7536
▁thri	-7537
orters	-7538
▁absor	-7539
▁armor	-7540
▁disgu	-7541
▁nanny	-7542
▁shares	-7543
▁farther	-7544
▁roughly	-7545
▁elevator	-7546
▁everyday	-7547
▁switched	-7548
▁accounting	-7549
▁practically	-7550
▁organisations	-7551
gra	-7552
mic	-7553
apor	-7554
keys	-7555
oker	-7556
sell	-7557
▁bid	-7558
▁drum	-7559
▁mast	-7560
▁shed	-7561
▁weed	-7562
▁hired	-7563
▁index	-7564
▁spark	-7565
▁walks	-7566
▁driven	-7567
▁rotten	-7568
▁flights	-7569
▁tobacco	-7570
▁producer	-7571
▁extensive	-7572
ups	-7573
lers	-7574
vals	-7575
▁sul	-7576
ornia	-7577
▁gear	-7578
▁horn	-7579
▁sigh	-7580
▁ther	-7581
anches	-7582
▁chase	-7583
▁fluid	-7584
▁relie	-7585
ologist	-7586
▁closet	-7587
▁helmet	-7588
▁apology	-7589
▁explore	-7590
▁mankind	-7591
▁ongoing	-7592
▁arranged	-7593
▁backward	-7594
▁concrete	-7595
▁equipped	-7596
▁batteries	-7597
▁encourage	-7598
▁quantities	-7599
▁calculation	-7600
och	-7601
▁atl	-7602
▁laz	-7603
▁ron	-7604
▁rul	-7605
▁bree	-7606
▁dish	-7607
▁earn	-7608
▁fury	-7609
▁blink	-7610
▁inval	-7611
▁parad	-7612
▁swept	-7613
ilation	-7614
▁consol	-7615
▁freeze	-7616
▁incent	-7617
▁wasted	-7618
quarters	-7619
▁sadness	-7620
▁snapped	-7621
▁assholes	-7622
▁charming	-7623
▁freezing	-7624
▁imperial	-7625
▁quantity	-7626
▁contained	-7627
▁extension	-7628
▁languages	-7629
▁underwear	-7630
▁enterprise	-7631
▁transition	-7632
▁necessarily	-7633
▁transaction	-7634
▁possibilities	-7635
▁transportation	-7636
fy	-7637
gas	-7638
ika	-7639
idal	-7640
izer	-7641
made	-7642
▁kra	-7643
▁bure	-7644
▁clay	-7645
▁dean	-7646
▁fare	-7647
▁irre	-7648
nesday	-7649
▁illum	-7650
▁handed	-7651
▁native	-7652
▁needle	-7653
▁orphan	-7654
▁robbed	-7655
▁waking	-7656
▁custody	-7657
▁emerged	-7658
▁disgrace	-7659
▁magnific	-7660
▁execution	-7661
▁wednesday	-7662
▁contribute	-7663
bu	-7664
ste	-7665
asma	-7666
iest	-7667
▁hem	-7668
▁kin	-7669
▁pic	-7670
▁ski	-7671
▁coal	-7672
▁hits	-7673
▁horm	-7674
▁snap	-7675
▁sore	-7676
▁asses	-7677
▁juice	-7678
▁legit	-7679
▁sends	-7680
▁sheet	-7681
▁spain	-7682
fashion	-7683
▁breach	-7684
▁labour	-7685
▁powder	-7686
▁costume	-7687
▁depends	-7688
▁digging	-7689
▁fantasy	-7690
▁retreat	-7691
▁compound	-7692
▁deadline	-7693
▁displays	-7694
▁potatoes	-7695
▁silently	-7696
▁attractive	-7697
▁california	-7698
▁guarantees	-7699
▁preventing	-7700
▁stakeholders	-7701
▁contributions	-7702
ems	-7703
rem	-7704
anes	-7705
itar	-7706
olic	-7707
▁nit	-7708
icial	-7709
▁babe	-7710
▁sang	-7711
▁thie	-7712
▁alleg	-7713
▁comin	-7714
▁consc	-7715
▁excit	-7716
▁noble	-7717
▁sandw	-7718
▁steam	-7719
▁toast	-7720
▁yield	-7721
▁attrib	-7722
▁ceased	-7723
▁divers	-7724
▁player	-7725
▁preced	-7726
▁savage	-7727
▁simult	-7728
▁fighter	-7729
▁housing	-7730
▁penalty	-7731
▁conducted	-7732
▁appearance	-7733
▁fortunately	-7734
rd	-7735
edy	-7736
leg	-7737
pled	-7738
▁egy	-7739
▁nap	-7740
▁pon	-7741
agues	-7742
asion	-7743
▁cage	-7744
▁pear	-7745
▁sque	-7746
▁chart	-7747
▁couch	-7748
▁input	-7749
essions	-7750
▁courts	-7751
▁declar	-7752
▁incomp	-7753
▁mighty	-7754
▁surviv	-7755
▁bitches	-7756
▁growled	-7757
▁clenched	-7758
▁interior	-7759
▁overcome	-7760
▁fortunate	-7761
▁hospitals	-7762
▁vegetables	-7763
sk	-7764
acc	-7765
▁som	-7766
▁tab	-7767
▁tow	-7768
▁toy	-7769
▁curt	-7770
▁dart	-7771
▁edit	-7772
▁root	-7773
▁saus	-7774
▁tube	-7775
▁worm	-7776
▁doses	-7777
▁egypt	-7778
▁monit	-7779
▁stern	-7780
▁vague	-7781
▁barbar	-7782
▁equival	-7783
▁heavily	-7784
▁jewelry	-7785
▁wanting	-7786
fashioned	-7787
▁avoiding	-7788
▁estimate	-7789
▁adventure	-7790
▁democracy	-7791
▁advantages	-7792
▁excitement	-7793
▁registered	-7794
▁advertising	-7795
▁controlling	-7796
had	-7797
▁||	-7798
▁gap	-7799
▁kel	-7800
▁2007	-7801
▁stub	-7802
ortion	-7803
▁ammun	-7804
▁bobby	-7805
▁chaos	-7806
▁cycle	-7807
▁infin	-7808
▁sells	-7809
▁stink	-7810
▁waist	-7811
▁glance	-7812
▁dresses	-7813
▁signing	-7814
ufficient	-7815
▁festival	-7816
▁lighting	-7817
▁magazine	-7818
▁collecting	-7819
▁comprehens	-7820
▁regulatory	-7821
▁structural	-7822
▁vulnerable	-7823
-3	-7824
cs	-7825
lov	-7826
fted	-7827
pack	-7828
▁dub	-7829
▁fox	-7830
▁tam	-7831
▁2008	-7832
▁jose	-7833
▁prev	-7834
▁swed	-7835
acters	-7836
igible	-7837
inting	-7838
▁accus	-7839
▁claws	-7840
▁goals	-7841
▁solar	-7842
▁wreck	-7843
▁authen	-7844
▁fierce	-7845
▁mortal	-7846
▁presum	-7847
▁shapes	-7848
▁bottles	-7849
▁schemes	-7850
▁critical	-7851
▁entities	-7852
▁geograph	-7853
▁pathetic	-7854
▁patterns	-7855
▁removing	-7856
▁ambulance	-7857
▁champagne	-7858
▁monitored	-7859
▁residents	-7860
▁ammunition	-7861
▁characters	-7862
▁destination	-7863
don	-7864
who	-7865
▁ze	-7866
comm	-7867
fers	-7868
ousy	-7869
▁cot	-7870
ogram	-7871
ontin	-7872
▁anna	-7873
▁dull	-7874
▁gast	-7875
▁pian	-7876
▁jones	-7877
▁waved	-7878
▁wrink	-7879
rection	-7880
ughters	-7881
▁affair	-7882
▁hazard	-7883
▁hunter	-7884
▁praise	-7885
▁rubber	-7886
▁wheels	-7887
▁britain	-7888
▁creates	-7889
▁bacteria	-7890
▁peaceful	-7891
▁depending	-7892
▁preferred	-7893
▁slaughter	-7894
▁worldwide	-7895
▁anniversary	-7896
▁contribution	-7897
▁az	-7898
kers	-7899
pass	-7900
rick	-7901
▁lev	-7902
ppled	-7903
▁bars	-7904
▁bern	-7905
▁impr	-7906
▁lads	-7907
▁lind	-7908
▁mour	-7909
▁upgr	-7910
▁wipe	-7911
▁fewer	-7912
▁ideal	-7913
▁outer	-7914
▁seeds	-7915
related	-7916
▁calend	-7917
▁collar	-7918
▁covers	-7919
▁escort	-7920
▁partly	-7921
▁upward	-7922
▁affairs	-7923
▁compass	-7924
▁discipl	-7925
▁grunted	-7926
▁killers	-7927
▁sharing	-7928
▁whiskey	-7929
▁chairman	-7930
▁congress	-7931
▁searched	-7932
▁civilians	-7933
▁collapsed	-7934
▁departure	-7935
▁evolution	-7936
▁instantly	-7937
▁partially	-7938
▁strategic	-7939
▁acceptable	-7940
▁consistent	-7941
▁forgetting	-7942
▁participation	-7943
ji	-7944
ali	-7945
irs	-7946
kel	-7947
oni	-7948
oys	-7949
▁gn	-7950
onic	-7951
ruit	-7952
uman	-7953
▁dur	-7954
▁1000	-7955
▁2009	-7956
▁2013	-7957
▁erup	-7958
▁haem	-7959
▁pipe	-7960
▁scre	-7961
▁slee	-7962
▁smes	-7963
▁tech	-7964
▁vari	-7965
elling	-7966
▁handy	-7967
▁penis	-7968
▁tribe	-7969
▁breaks	-7970
▁cancel	-7971
▁plasma	-7972
▁rebell	-7973
▁halfway	-7974
▁islands	-7975
▁kicking	-7976
▁attempts	-7977
▁gathered	-7978
▁invented	-7979
▁modified	-7980
▁encounter	-7981
▁justified	-7982
▁reflected	-7983
▁leadership	-7984
▁surrounding	-7985
12	-7986
rov	-7987
▁nu	-7988
.200	-7989
lets	-7990
seen	-7991
whel	-7992
▁197	-7993
▁elf	-7994
▁fbl	-7995
▁vas	-7996
▁anth	-7997
▁dict	-7998
▁grip	-7999
▁kate	-8000
▁sank	-8001
rating	-8002
▁bride	-8003
▁flies	-8004
▁raped	-8005
▁skies	-8006
▁tempt	-8007
▁views	-8008
▁armies	-8009
▁editor	-8010
▁tested	-8011
▁alleged	-8012
▁lightly	-8013
▁instance	-8014
▁psychiat	-8015
▁daughters	-8016
▁directions	-8017
▁statements	-8018
,0	-8019
shot	-8020
▁dup	-8021
plant	-8022
tions	-8023
▁2005	-8024
▁mant	-8025
▁stal	-8026
making	-8027
▁debts	-8028
▁faded	-8029
▁lists	-8030
▁satan	-8031
▁defect	-8032
▁factor	-8033
▁routes	-8034
▁sooner	-8035
▁submar	-8036
▁worthy	-8037
▁earthqu	-8038
▁filling	-8039
▁imports	-8040
▁january	-8041
▁needing	-8042
▁outrage	-8043
▁abruptly	-8044
▁disorder	-8045
▁eternity	-8046
▁fabulous	-8047
▁champions	-8048
▁discovery	-8049
▁precisely	-8050
▁voluntary	-8051
▁commitment	-8052
▁experiments	-8053
▁manufacturers	-8054
ela	-8055
iser	-8056
mann	-8057
andal	-8058
cover	-8059
▁2000	-8060
▁malf	-8061
ateral	-8062
▁abdom	-8063
▁adopt	-8064
▁lobby	-8065
▁lousy	-8066
▁repay	-8067
▁suits	-8068
imental	-8069
▁chains	-8070
▁define	-8071
▁prayer	-8072
▁shells	-8073
▁nearest	-8074
▁disabled	-8075
▁pointing	-8076
▁settlement	-8077
▁imagination	-8078
py	-8079
ua	-8080
aka	-8081
gic	-8082
hab	-8083
lyn	-8084
▁ki	-8085
iana	-8086
kins	-8087
▁adj	-8088
appro	-8089
▁2004	-8090
▁buzz	-8091
▁nove	-8092
▁plun	-8093
▁viet	-8094
stream	-8095
▁disag	-8096
▁layer	-8097
▁emphas	-8098
▁filter	-8099
▁firmly	-8100
▁museum	-8101
▁prints	-8102
▁purple	-8103
▁stores	-8104
▁conspir	-8105
▁gravity	-8106
▁heating	-8107
▁promote	-8108
▁theatre	-8109
▁describe	-8110
▁examples	-8111
▁superior	-8112
▁alongside	-8113
▁competent	-8114
▁furniture	-8115
▁classified	-8116
▁strategies	-8117
▁magnificent	-8118
▁reservation	-8119
ea	-8120
bag	-8121
ras	-8122
tor	-8123
enda	-8124
free	-8125
onym	-8126
stra	-8127
▁cri	-8128
▁pod	-8129
comes	-8130
isons	-8131
▁drun	-8132
▁glim	-8133
▁silk	-8134
▁tons	-8135
papers	-8136
ushing	-8137
▁induc	-8138
▁rhyth	-8139
istical	-8140
▁banned	-8141
▁occurs	-8142
▁saddle	-8143
▁delayed	-8144
▁diamond	-8145
▁greatly	-8146
▁planets	-8147
▁sharply	-8148
▁william	-8149
▁reproduc	-8150
▁reinforce	-8151
▁corruption	-8152
▁definition	-8153
▁priorities	-8154
▁celebration	-8155
▁intervention	-8156
▁sufficiently	-8157
▁disappointment	-8158
oll	-8159
▁fi	-8160
ands	-8161
soft	-8162
▁gum	-8163
▁lor	-8164
▁lur	-8165
ashes	-8166
mates	-8167
osity	-8168
▁jake	-8169
▁lion	-8170
▁muff	-8171
active	-8172
laimed	-8173
▁fists	-8174
▁frost	-8175
▁humor	-8176
▁paths	-8177
▁steve	-8178
▁sworn	-8179
▁twist	-8180
▁urban	-8181
▁beasts	-8182
▁ghosts	-8183
▁league	-8184
▁summon	-8185
▁weekly	-8186
▁crystal	-8187
▁hunters	-8188
▁restore	-8189
▁catching	-8190
▁collapse	-8191
▁distingu	-8192
▁surrender	-8193
▁mechanisms	-8194
▁newspapers	-8195
▁subsequent	-8196
▁introduction	-8197
,5	-8198
eu	-8199
gue	-8200
lon	-8201
san	-8202
▁ip	-8203
amps	-8204
avir	-8205
itan	-8206
most	-8207
ture	-8208
west	-8209
▁axe	-8210
▁dor	-8211
▁pel	-8212
▁voc	-8213
ishes	-8214
power	-8215
stein	-8216
▁2010	-8217
▁coff	-8218
▁gust	-8219
▁lect	-8220
▁unin	-8221
aneous	-8222
▁boost	-8223
▁discl	-8224
▁overd	-8225
▁panel	-8226
▁rubbed	-8227
▁amusing	-8228
▁enabled	-8229
▁envelop	-8230
▁fathers	-8231
▁lowered	-8232
▁receipt	-8233
▁substit	-8234
▁altitude	-8235
▁appetite	-8236
▁betrayed	-8237
▁authentic	-8238
▁landscape	-8239
▁unfortunate	-8240
▁undertakings	-8241
aph	-8242
run	-8243
▁tu	-8244
ront	-8245
▁bil	-8246
▁bin	-8247
fight	-8248
▁awak	-8249
▁neat	-8250
▁prey	-8251
endous	-8252
▁ignor	-8253
▁leapt	-8254
▁motiv	-8255
▁straw	-8256
▁comply	-8257
▁passes	-8258
▁philos	-8259
▁worker	-8260
▁punched	-8261
▁respons	-8262
▁simpler	-8263
▁thieves	-8264
▁adorable	-8265
▁declared	-8266
▁mistress	-8267
▁occasion	-8268
▁overwhel	-8269
▁printing	-8270
▁investors	-8271
▁enforcement	-8272
.8	-8273
▁dv	-8274
▁os	-8275
atus	-8276
ella	-8277
hers	-8278
wife	-8279
▁aer	-8280
▁hed	-8281
▁hip	-8282
▁oly	-8283
▁ooh	-8284
guard	-8285
itter	-8286
mored	-8287
ograp	-8288
umber	-8289
▁bish	-8290
▁inch	-8291
▁jeff	-8292
▁lend	-8293
▁leon	-8294
▁lets	-8295
▁myth	-8296
▁rash	-8297
▁shoe	-8298
▁vest	-8299
▁chris	-8300
▁crush	-8301
▁shark	-8302
usively	-8303
▁behalf	-8304
▁belief	-8305
▁caesar	-8306
▁chased	-8307
▁contam	-8308
▁dealer	-8309
▁entity	-8310
▁hollow	-8311
▁jerked	-8312
▁pillow	-8313
▁safely	-8314
▁francis	-8315
▁updates	-8316
▁highness	-8317
▁insisted	-8318
▁worrying	-8319
▁initially	-8320
▁scattered	-8321
▁afterwards	-8322
▁categories	-8323
▁engineering	-8324
▁headquarters	-8325
▁investigations	-8326
aro	-8327
cel	-8328
enn	-8329
rec	-8330
▁nl	-8331
cale	-8332
enia	-8333
pent	-8334
▁aqu	-8335
▁dil	-8336
▁vin	-8337
amped	-8338
▁bold	-8339
▁fans	-8340
▁grid	-8341
▁terr	-8342
▁angle	-8343
▁marit	-8344
▁slope	-8345
▁astron	-8346
▁cinema	-8347
▁deploy	-8348
▁dining	-8349
▁pupils	-8350
▁healing	-8351
▁praying	-8352
▁tightly	-8353
▁arriving	-8354
▁terminal	-8355
▁marketing	-8356
▁physician	-8357
▁remembers	-8358
▁conclusion	-8359
▁infections	-8360
▁improvements	-8361
▁observations	-8362
▁simultaneously	-8363
11	-8364
kal	-8365
burg	-8366
issa	-8367
part	-8368
▁150	-8369
▁vag	-8370
armed	-8371
oping	-8372
sized	-8373
uster	-8374
▁andy	-8375
▁beck	-8376
▁boot	-8377
▁cass	-8378
▁hind	-8379
▁vain	-8380
rition	-8381
▁cheek	-8382
▁preca	-8383
▁races	-8384
▁shiny	-8385
▁coward	-8386
▁fabric	-8387
▁resign	-8388
▁robots	-8389
▁sleeps	-8390
▁submit	-8391
▁forests	-8392
▁invalid	-8393
▁printed	-8394
▁alliance	-8395
▁november	-8396
▁offended	-8397
▁overhead	-8398
▁component	-8399
▁equivalent	-8400
▁invitation	-8401
▁percentage	-8402
▁involvement	-8403
▁personality	-8404
▁transparent	-8405
▁temperatures	-8406
bour	-8407
udge	-8408
▁dod	-8409
▁shy	-8410
▁eesc	-8411
▁semi	-8412
▁yell	-8413
inates	-8414
▁andre	-8415
▁persu	-8416
reprene	-8417
▁ambass	-8418
▁harbor	-8419
▁regime	-8420
▁retail	-8421
▁smiles	-8422
▁trains	-8423
▁videos	-8424
▁armored	-8425
▁chopper	-8426
▁conflic	-8427
▁joining	-8428
▁liberty	-8429
▁rockets	-8430
▁stabbed	-8431
▁variety	-8432
▁allowing	-8433
▁currency	-8434
▁targeted	-8435
▁collected	-8436
▁inventory	-8437
▁calculated	-8438
▁depression	-8439
▁governments	-8440
▁implementing	-8441
▁transparency	-8442
▁consciousness	-8443
yr	-8444
bro	-8445
def	-8446
osh	-8447
bris	-8448
burn	-8449
emed	-8450
hall	-8451
▁asc	-8452
▁gor	-8453
▁jean	-8454
▁jury	-8455
▁rows	-8456
▁vial	-8457
▁olymp	-8458
▁recru	-8459
▁scott	-8460
▁spray	-8461
▁thres	-8462
▁finest	-8463
▁torped	-8464
atherine	-8465
▁conceal	-8466
▁feather	-8467
▁neutral	-8468
▁slammed	-8469
▁channels	-8470
▁suggests	-8471
▁troubles	-8472
▁uniforms	-8473
▁entreprene	-8474
▁guaranteed	-8475
▁resolution	-8476
▁competitive	-8477
▁forgiveness	-8478
▁civilization	-8479
fts	-8480
sie	-8481
ante	-8482
bted	-8483
▁ari	-8484
▁sty	-8485
▁sue	-8486
▁yan	-8487
▁flaw	-8488
▁gene	-8489
▁grat	-8490
▁snar	-8491
▁sock	-8492
alling	-8493
▁brake	-8494
▁mathe	-8495
▁orbit	-8496
▁punch	-8497
▁radar	-8498
▁robin	-8499
▁templ	-8500
▁towns	-8501
▁allies	-8502
▁branch	-8503
▁hammer	-8504
▁morgan	-8505
▁outfit	-8506
▁parall	-8507
▁psycho	-8508
▁respir	-8509
▁survey	-8510
▁traged	-8511
▁yelled	-8512
▁colored	-8513
▁matches	-8514
▁shocked	-8515
▁sickness	-8516
▁promotion	-8517
▁association	-8518
▁investigate	-8519
▁insufficient	-8520
▁verification	-8521
usk	-8522
vet	-8523
▁48	-8524
▁ny	-8525
ario	-8526
moon	-8527
▁cul	-8528
▁haw	-8529
▁rug	-8530
▁2006	-8531
▁glor	-8532
▁gown	-8533
▁guts	-8534
▁palm	-8535
▁rude	-8536
loaded	-8537
▁chips	-8538
▁codes	-8539
▁deleg	-8540
▁greek	-8541
▁penny	-8542
▁safer	-8543
▁heroes	-8544
▁insert	-8545
▁kidney	-8546
▁suffoc	-8547
▁amended	-8548
▁glowing	-8549
▁quicker	-8550
▁spilled	-8551
▁torpedo	-8552
▁visitor	-8553
▁assuming	-8554
▁chickens	-8555
▁operator	-8556
▁microsoft	-8557
▁obstacles	-8558
▁authorised	-8559
▁strengthen	-8560
▁generations	-8561
▁journalists	-8562
▁partnership	-8563
▁perspective	-8564
▁consultation	-8565
ads	-8566
aki	-8567
ige	-8568
why	-8569
agon	-8570
card	-8571
emic	-8572
ober	-8573
pres	-8574
rels	-8575
▁eag	-8576
▁hub	-8577
▁jur	-8578
heads	-8579
▁anch	-8580
▁salv	-8581
▁seld	-8582
incing	-8583
▁alice	-8584
▁incon	-8585
▁intra	-8586
▁reass	-8587
▁clinic	-8588
▁disrup	-8589
▁junior	-8590
▁retrie	-8591
▁sophie	-8592
▁tablet	-8593
▁counted	-8594
▁exagger	-8595
▁eyebrow	-8596
▁flowing	-8597
▁realise	-8598
▁branches	-8599
▁diamonds	-8600
▁mathemat	-8601
▁terrific	-8602
▁chemicals	-8603
▁mandatory	-8604
▁protective	-8605
▁legislative	-8606
▁establishment	-8607
▁concentrations	-8608
▁75	-8609
oved	-8610
▁ath	-8611
▁bos	-8612
▁ori	-8613
class	-8614
lings	-8615
obile	-8616
▁ages	-8617
▁bark	-8618
▁clan	-8619
▁clue	-8620
▁dock	-8621
▁flee	-8622
▁album	-8623
▁alpha	-8624
▁booth	-8625
▁cheat	-8626
▁groan	-8627
▁susan	-8628
▁debris	-8629
▁gloves	-8630
▁hitler	-8631
▁jungle	-8632
▁poured	-8633
▁rating	-8634
▁admiral	-8635
▁approve	-8636
▁bearing	-8637
▁closest	-8638
▁selfish	-8639
▁airlines	-8640
▁generate	-8641
▁punished	-8642
▁resident	-8643
▁restored	-8644
▁amendment	-8645
▁discontin	-8646
▁responses	-8647
▁surprises	-8648
▁inevitable	-8649
▁educational	-8650
▁understands	-8651
▁administered	-8652
ii	-8653
aya	-8654
rous	-8655
then	-8656
▁eld	-8657
▁orb	-8658
▁owe	-8659
▁tap	-8660
▁wig	-8661
child	-8662
ipher	-8663
▁whit	-8664
▁badge	-8665
▁dealt	-8666
▁grows	-8667
▁holly	-8668
▁intim	-8669
▁laser	-8670
▁sixth	-8671
▁spine	-8672
▁bellow	-8673
▁dishes	-8674
▁trauma	-8675
▁wallet	-8676
▁academy	-8677
▁blanket	-8678
▁exports	-8679
▁frankly	-8680
▁horizon	-8681
▁loading	-8682
▁restart	-8683
▁romance	-8684
itiveness	-8685
▁awaiting	-8686
▁eighteen	-8687
▁entitled	-8688
▁measured	-8689
▁starving	-8690
▁strongly	-8691
▁defending	-8692
▁liability	-8693
▁organized	-8694
▁threshold	-8695
▁casualties	-8696
▁explosives	-8697
▁specialist	-8698
▁essentially	-8699
▁fascinating	-8700
dry	-8701
eel	-8702
step	-8703
▁dum	-8704
▁nan	-8705
▁vig	-8706
great	-8707
proof	-8708
▁cows	-8709
▁goat	-8710
prints	-8711
▁alter	-8712
▁appar	-8713
▁bench	-8714
▁eddie	-8715
▁inhib	-8716
▁irish	-8717
▁jason	-8718
▁larry	-8719
▁score	-8720
▁sniff	-8721
ription	-8722
▁edward	-8723
▁insist	-8724
▁poetry	-8725
▁splend	-8726
▁advised	-8727
▁awfully	-8728
▁corpses	-8729
▁feature	-8730
▁reforms	-8731
▁regrets	-8732
▁seventh	-8733
▁shifted	-8734
▁commands	-8735
▁farewell	-8736
▁colleague	-8737
▁intellect	-8738
▁scientist	-8739
▁stability	-8740
▁assignment	-8741
▁colleagues	-8742
▁companions	-8743
▁prevention	-8744
▁remarkable	-8745
▁terrifying	-8746
▁questioning	-8747
▁manufacturing	-8748
40	-8749
ben	-8750
cow	-8751
gus	-8752
orp	-8753
wan	-8754
asse	-8755
sole	-8756
bling	-8757
oding	-8758
oning	-8759
osaur	-8760
▁deaf	-8761
▁raid	-8762
▁slip	-8763
▁tomb	-8764
▁milit	-8765
▁tract	-8766
▁condem	-8767
▁copper	-8768
▁hotels	-8769
▁mouths	-8770
▁studio	-8771
▁aspects	-8772
▁beloved	-8773
▁discrim	-8774
▁elected	-8775
▁freight	-8776
▁germans	-8777
▁guessed	-8778
▁hurried	-8779
▁signals	-8780
▁baseball	-8781
▁deserted	-8782
▁dialogue	-8783
▁gestured	-8784
▁involving	-8785
▁swallowed	-8786
▁functional	-8787
▁separately	-8788
▁tremendous	-8789
▁initiatives	-8790
▁motherfuckers	-8791
▁competitiveness	-8792
10	-8793
aga	-8794
zes	-8795
arse	-8796
▁sev	-8797
abeth	-8798
▁gord	-8799
▁ting	-8800
apping	-8801
riages	-8802
▁arrog	-8803
▁beans	-8804
▁incap	-8805
▁obser	-8806
▁postp	-8807
▁renal	-8808
▁renew	-8809
▁anonym	-8810
▁embass	-8811
▁skinny	-8812
▁tastes	-8813
▁capture	-8814
▁farming	-8815
▁lunatic	-8816
▁princip	-8817
▁prostit	-8818
▁recruit	-8819
▁secured	-8820
▁smelled	-8821
▁adjusted	-8822
▁assessed	-8823
▁downtown	-8824
▁abilities	-8825
▁dismissed	-8826
▁entertain	-8827
▁indicates	-8828
▁processes	-8829
▁producing	-8830
▁prosecutor	-8831
-8	-8832
cus	-8833
era	-8834
gie	-8835
rum	-8836
vey	-8837
wall	-8838
▁icy	-8839
▁kir	-8840
▁pak	-8841
▁rim	-8842
organ	-8843
▁dent	-8844
▁pork	-8845
▁rely	-8846
▁ross	-8847
▁firms	-8848
▁flour	-8849
▁stead	-8850
▁trunk	-8851
▁wages	-8852
ication	-8853
ictions	-8854
issible	-8855
ourable	-8856
▁atomic	-8857
▁cursed	-8858
▁farmer	-8859
▁makeup	-8860
▁puzzle	-8861
▁throne	-8862
▁dispute	-8863
▁drowned	-8864
▁largest	-8865
▁musical	-8866
▁calendar	-8867
▁directed	-8868
▁disposal	-8869
▁homeless	-8870
▁judicial	-8871
▁marrying	-8872
▁parallel	-8873
▁concluded	-8874
▁policemen	-8875
▁biological	-8876
▁confession	-8877
▁conscience	-8878
▁possession	-8879
▁adjustments	-8880
▁confirmation	-8881
lot	-8882
cons	-8883
onia	-8884
quis	-8885
asses	-8886
bound	-8887
▁bart	-8888
▁bour	-8889
▁embr	-8890
▁golf	-8891
▁penc	-8892
▁scal	-8893
utical	-8894
verted	-8895
▁brian	-8896
▁cloth	-8897
▁genet	-8898
▁hence	-8899
▁lemon	-8900
▁autumn	-8901
▁differ	-8902
▁enthus	-8903
▁perpet	-8904
▁serial	-8905
▁traces	-8906
▁binding	-8907
▁demanded	-8908
▁operated	-8909
▁referred	-8910
▁backwards	-8911
▁budgetary	-8912
▁considers	-8913
▁facilitate	-8914
▁exclusively	-8915
▁unconscious	-8916
ett	-8917
kov	-8918
pit	-8919
▁il	-8920
jack	-8921
name	-8922
oman	-8923
▁bri	-8924
▁ire	-8925
▁jed	-8926
▁nad	-8927
actic	-8928
imony	-8929
▁aids	-8930
▁ammo	-8931
▁eric	-8932
▁mete	-8933
▁pole	-8934
▁seiz	-8935
atural	-8936
ieties	-8937
▁cents	-8938
▁scent	-8939
▁accent	-8940
▁proves	-8941
▁purely	-8942
▁denying	-8943
▁forcing	-8944
▁fragile	-8945
▁october	-8946
▁ringing	-8947
▁barriers	-8948
▁deserved	-8949
▁download	-8950
▁guessing	-8951
▁hostages	-8952
▁tortured	-8953
▁treating	-8954
▁excessive	-8955
▁ambassador	-8956
▁compassion	-8957
▁indicators	-8958
dis	-8959
norm	-8960
oval	-8961
rist	-8962
▁rif	-8963
chron	-8964
faced	-8965
▁asia	-8966
▁beet	-8967
▁repa	-8968
▁skip	-8969
▁vary	-8970
ounced	-8971
rolled	-8972
▁euros	-8973
▁explo	-8974
▁flows	-8975
▁frust	-8976
▁galax	-8977
▁gover	-8978
▁loses	-8979
▁piano	-8980
▁shine	-8981
▁skirt	-8982
▁cannon	-8983
▁halluc	-8984
▁hunted	-8985
▁liquor	-8986
▁madman	-8987
▁prelim	-8988
▁solved	-8989
▁sorrow	-8990
▁begging	-8991
▁bombing	-8992
▁enthusi	-8993
▁stuffed	-8994
▁daylight	-8995
▁dressing	-8996
▁floating	-8997
▁isolated	-8998
▁notified	-8999
▁supplied	-9000
▁tourists	-9001
▁bothering	-9002
▁explosive	-9003
▁expressed	-9004
▁highlight	-9005
▁packaging	-9006
▁succeeded	-9007
▁motorcycle	-9008
▁demonstrated	-9009
▁infringement	-9010
▁interpretation	-9011
wy	-9012
irm	-9013
vis	-9014
.199	-9015
idel	-9016
usal	-9017
▁hay	-9018
▁kos	-9019
▁nah	-9020
▁sib	-9021
hable	-9022
▁halt	-9023
▁pled	-9024
▁rebu	-9025
▁hypot	-9026
▁opera	-9027
▁rocky	-9028
▁twins	-9029
▁bishop	-9030
▁county	-9031
▁devast	-9032
▁guitar	-9033
▁ingred	-9034
▁korean	-9035
▁laughs	-9036
▁offend	-9037
▁ritual	-9038
▁crucial	-9039
▁ireland	-9040
▁mounted	-9041
▁deterior	-9042
▁flexible	-9043
▁publicly	-9044
▁companion	-9045
▁convicted	-9046
▁organised	-9047
▁constitute	-9048
▁diplomatic	-9049
▁federation	-9050
▁maintained	-9051
,3	-9052
amm	-9053
phe	-9054
aman	-9055
have	-9056
roph	-9057
▁arc	-9058
ether	-9059
tingu	-9060
▁2011	-9061
▁bits	-9062
▁bron	-9063
▁brun	-9064
▁dess	-9065
forced	-9066
keeper	-9067
▁baron	-9068
▁bible	-9069
▁caram	-9070
▁farms	-9071
▁lamps	-9072
▁nause	-9073
▁roots	-9074
▁cooked	-9075
▁extend	-9076
▁faggot	-9077
▁latter	-9078
▁marvel	-9079
▁parked	-9080
▁carries	-9081
▁decades	-9082
▁drunken	-9083
▁engaged	-9084
▁imposed	-9085
▁jeopard	-9086
▁organic	-9087
▁privile	-9088
▁tragedy	-9089
▁gasoline	-9090
▁horizont	-9091
▁interpre	-9092
▁vertical	-9093
▁blackmail	-9094
▁identical	-9095
▁basketball	-9096
▁unemployment	-9097
erm	-9098
ocy	-9099
roc	-9100
▁33	-9101
▁rav	-9102
berry	-9103
erate	-9104
riger	-9105
▁belg	-9106
▁chic	-9107
▁eliz	-9108
▁hack	-9109
▁melt	-9110
▁mush	-9111
▁twin	-9112
▁antib	-9113
▁fatig	-9114
▁helen	-9115
▁korea	-9116
▁ridge	-9117
▁slide	-9118
▁tapes	-9119
▁cookie	-9120
▁dagger	-9121
▁moscow	-9122
▁sensor	-9123
▁arrives	-9124
▁insects	-9125
▁masters	-9126
▁monthly	-9127
▁backpack	-9128
▁decrease	-9129
▁historic	-9130
▁invasion	-9131
▁smoothly	-9132
▁cooperate	-9133
▁generated	-9134
▁healthcare	-9135
▁arrangement	-9136
▁communicate	-9137
▁participate	-9138
▁preliminary	-9139
▁coordination	-9140
▁comprehensive	-9141
dd	-9142
lad	-9143
pay	-9144
fold	-9145
idae	-9146
lind	-9147
▁600	-9148
▁hut	-9149
▁nas	-9150
▁tag	-9151
eness	-9152
opath	-9153
uting	-9154
▁bump	-9155
▁folk	-9156
▁foul	-9157
▁glit	-9158
▁herm	-9159
▁pine	-9160
▁spit	-9161
haired	-9162
▁asian	-9163
▁colum	-9164
▁draft	-9165
▁dusty	-9166
▁logic	-9167
▁memor	-9168
▁metab	-9169
▁moust	-9170
▁smash	-9171
▁sneak	-9172
▁tries	-9173
regular	-9174
retched	-9175
▁barrel	-9176
▁folded	-9177
▁wolves	-9178
▁enables	-9179
▁extingu	-9180
▁monkeys	-9181
▁nations	-9182
▁procure	-9183
▁consolid	-9184
▁duration	-9185
▁pressing	-9186
▁resolved	-9187
▁withdraw	-9188
▁discussed	-9189
▁movements	-9190
▁promoting	-9191
▁triggered	-9192
▁kilometres	-9193
▁struggling	-9194
▁encountered	-9195
▁negotiation	-9196
▁presentation	-9197
▁recommendation	-9198
▁representatives	-9199
iva	-9200
sen	-9201
sky	-9202
was	-9203
▁ku	-9204
life	-9205
▁biz	-9206
▁dug	-9207
▁fen	-9208
▁orn	-9209
▁spi	-9210
cules	-9211
▁cham	-9212
▁insp	-9213
▁odds	-9214
▁punk	-9215
▁spac	-9216
▁backs	-9217
▁burgl	-9218
▁dared	-9219
▁ruins	-9220
▁sadly	-9221
▁shrie	-9222
▁sorts	-9223
▁stark	-9224
▁thigh	-9225
▁10,000	-9226
▁adding	-9227
▁pilots	-9228
▁smoked	-9229
▁anxiety	-9230
▁cracked	-9231
▁decline	-9232
▁footage	-9233
▁israeli	-9234
▁jackson	-9235
▁december	-9236
▁divorced	-9237
▁ignoring	-9238
▁rational	-9239
▁refriger	-9240
▁revenues	-9241
▁suitcase	-9242
▁executive	-9243
▁terrorism	-9244
▁conspiracy	-9245
▁supervision	-9246
▁professionals	-9247
jam	-9248
var	-9249
win	-9250
▁om	-9251
beat	-9252
fare	-9253
osex	-9254
walk	-9255
▁dre	-9256
▁gib	-9257
imens	-9258
inery	-9259
pling	-9260
▁arse	-9261
▁beef	-9262
▁blur	-9263
▁brid	-9264
▁brim	-9265
▁holl	-9266
called	-9267
uating	-9268
▁ashes	-9269
▁drops	-9270
▁exped	-9271
▁newly	-9272
▁paran	-9273
▁tires	-9274
itivity	-9275
▁attach	-9276
▁habits	-9277
▁organs	-9278
▁whores	-9279
▁consent	-9280
▁elegant	-9281
▁outcome	-9282
▁pharmac	-9283
▁adoption	-9284
▁eligible	-9285
▁misunder	-9286
▁quarters	-9287
▁secretly	-9288
▁attracted	-9289
▁estimates	-9290
▁incorrect	-9291
▁nutrition	-9292
▁paperwork	-9293
▁particles	-9294
▁satisfied	-9295
▁pretending	-9296
▁whispering	-9297
▁complaining	-9298
▁uncertainty	-9299
▁accommodation	-9300
▁administrator	-9301
▁representative	-9302
gon	-9303
hop	-9304
rid	-9305
▁36	-9306
arre	-9307
enon	-9308
fere	-9309
uana	-9310
▁bum	-9311
▁neu	-9312
▁voy	-9313
adays	-9314
mares	-9315
otted	-9316
▁alan	-9317
▁barn	-9318
▁stag	-9319
▁tuck	-9320
▁vend	-9321
▁craft	-9322
▁flick	-9323
▁georg	-9324
▁hears	-9325
▁secre	-9326
▁shade	-9327
▁tiger	-9328
▁breeze	-9329
▁centim	-9330
▁conven	-9331
▁deeper	-9332
▁delays	-9333
▁duplic	-9334
▁floors	-9335
▁intact	-9336
▁locate	-9337
▁plague	-9338
▁stated	-9339
▁barrier	-9340
▁buttons	-9341
▁indians	-9342
▁jumping	-9343
▁logical	-9344
▁prayers	-9345
▁touches	-9346
▁annoying	-9347
▁contrary	-9348
▁maritime	-9349
▁nowadays	-9350
▁activated	-9351
▁paintings	-9352
▁penalties	-9353
▁processed	-9354
▁applicants	-9355
▁convincing	-9356
▁foreigners	-9357
▁prescribed	-9358
▁suggestion	-9359
▁remembering	-9360
▁effectiveness	-9361
nut	-9362
▁65	-9363
-201	-9364
igan	-9365
ours	-9366
uddy	-9367
▁hog	-9368
▁rib	-9369
adequ	-9370
after	-9371
ouses	-9372
scale	-9373
▁2002	-9374
▁cath	-9375
▁mans	-9376
▁peak	-9377
▁slut	-9378
ptions	-9379
weight	-9380
▁awoke	-9381
▁beers	-9382
▁bills	-9383
▁drain	-9384
▁fails	-9385
▁gloom	-9386
▁heels	-9387
▁limbs	-9388
▁manif	-9389
▁mobil	-9390
▁raist	-9391
▁tales	-9392
ography	-9393
▁evapor	-9394
▁judges	-9395
▁punish	-9396
▁rebels	-9397
▁sighed	-9398
▁stages	-9399
▁waving	-9400
▁embassy	-9401
▁execute	-9402
▁gesture	-9403
▁inadequ	-9404
▁pursuit	-9405
▁breathed	-9406
▁disguise	-9407
▁gambling	-9408
▁rejection	-9409
▁sensation	-9410
▁calculations	-9411
▁disappearing	-9412
▁participants	-9413
-0	-9414
.9	-9415
ml	-9416
anz	-9417
vir	-9418
▁amy	-9419
▁gem	-9420
▁oli	-9421
▁sie	-9422
▁unl	-9423
heast	-9424
sieur	-9425
▁carn	-9426
▁deer	-9427
▁hull	-9428
▁lawn	-9429
ulsion	-9430
▁asset	-9431
▁bloss	-9432
▁catal	-9433
▁dimin	-9434
▁hatch	-9435
▁minim	-9436
▁rider	-9437
▁swore	-9438
▁wagon	-9439
▁actors	-9440
▁eighty	-9441
▁dignity	-9442
▁freaked	-9443
▁justify	-9444
▁shuttle	-9445
▁talents	-9446
▁whipped	-9447
▁choosing	-9448
▁defeated	-9449
▁illusion	-9450
▁monsieur	-9451
▁subjects	-9452
▁troubled	-9453
▁dependent	-9454
▁reception	-9455
▁reporters	-9456
▁witnessed	-9457
▁democratic	-9458
▁mechanical	-9459
▁nightmares	-9460
▁transplant	-9461
▁weaknesses	-9462
▁identifying	-9463
▁sustainable	-9464
fi	-9465
je	-9466
ser	-9467
thr	-9468
▁ky	-9469
enth	-9470
ghan	-9471
oids	-9472
▁mim	-9473
break	-9474
itect	-9475
ribes	-9476
▁crop	-9477
▁crum	-9478
▁moan	-9479
▁nood	-9480
▁tack	-9481
▁turk	-9482
▁wage	-9483
accept	-9484
dering	-9485
market	-9486
oubted	-9487
▁acted	-9488
▁beams	-9489
▁carol	-9490
▁clark	-9491
▁dutch	-9492
▁exter	-9493
▁grain	-9494
▁remar	-9495
▁behave	-9496
▁fertil	-9497
▁naught	-9498
▁scarce	-9499
▁steven	-9500
▁volcan	-9501
izations	-9502
▁amongst	-9503
▁convert	-9504
▁dischar	-9505
▁filming	-9506
▁frowned	-9507
▁jessica	-9508
▁johnson	-9509
▁packing	-9510
▁propose	-9511
▁resting	-9512
▁sweater	-9513
▁tourist	-9514
▁knocking	-9515
▁sandwich	-9516
▁shipment	-9517
▁apparatus	-9518
▁expertise	-9519
▁irregular	-9520
▁typically	-9521
▁undoubted	-9522
▁frightening	-9523
▁measurement	-9524
▁accomplished	-9525
▁determination	-9526
-9	-9527
uz	-9528
bus	-9529
ctor	-9530
oons	-9531
turn	-9532
will	-9533
▁dos	-9534
▁iii	-9535
▁sme	-9536
▁tac	-9537
chair	-9538
ested	-9539
worth	-9540
▁bugs	-9541
▁dram	-9542
▁hawk	-9543
▁narc	-9544
▁toes	-9545
▁writ	-9546
▁brush	-9547
▁emily	-9548
▁foods	-9549
▁loser	-9550
▁abnorm	-9551
▁fellas	-9552
▁radius	-9553
▁riders	-9554
▁writer	-9555
▁crowded	-9556
▁loyalty	-9557
▁luckily	-9558
▁panties	-9559
▁repairs	-9560
▁swallow	-9561
▁agencies	-9562
▁faithful	-9563
▁frighten	-9564
▁governor	-9565
▁paradise	-9566
▁raistlin	-9567
▁recalled	-9568
▁talented	-9569
▁unaccept	-9570
▁vicinity	-9571
▁architect	-9572
▁disturbed	-9573
▁interfere	-9574
▁suppliers	-9575
▁exceptions	-9576
▁parameters	-9577
▁integration	-9578
▁restaurants	-9579
▁statistical	-9580
32	-9581
adv	-9582
eda	-9583
ede	-9584
ico	-9585
iko	-9586
oty	-9587
▁kl	-9588
ayed	-9589
opsy	-9590
ulin	-9591
▁gee	-9592
▁gym	-9593
▁lid	-9594
▁meg	-9595
kered	-9596
▁bail	-9597
▁buys	-9598
▁invo	-9599
▁pose	-9600
▁stew	-9601
▁unde	-9602
master	-9603
ounded	-9604
▁olive	-9605
▁schol	-9606
▁sings	-9607
▁spear	-9608
▁worms	-9609
inction	-9610
▁cellar	-9611
▁danced	-9612
▁inspir	-9613
▁oliver	-9614
▁rivers	-9615
▁tricks	-9616
▁columns	-9617
▁grinned	-9618
▁offence	-9619
▁pockets	-9620
▁priests	-9621
▁rescued	-9622
▁airports	-9623
▁discount	-9624
▁excluded	-9625
▁occupied	-9626
▁countless	-9627
▁policeman	-9628
▁assassination	-9629
▁interrogation	-9630
lu	-9631
hage	-9632
haha	-9633
opes	-9634
rise	-9635
▁cav	-9636
rolog	-9637
▁brig	-9638
▁bunk	-9639
▁dusk	-9640
▁gobl	-9641
▁pean	-9642
▁pent	-9643
▁sarc	-9644
▁sink	-9645
▁stur	-9646
guards	-9647
▁accum	-9648
▁bands	-9649
▁blows	-9650
▁bonus	-9651
▁booze	-9652
▁chlor	-9653
▁pipes	-9654
▁chairs	-9655
▁compat	-9656
▁knives	-9657
▁mercen	-9658
▁paused	-9659
▁resear	-9660
▁wicked	-9661
▁charity	-9662
▁contrad	-9663
▁fatigue	-9664
▁formula	-9665
▁gallery	-9666
▁senator	-9667
▁sincere	-9668
▁bothered	-9669
▁descended	-9670
▁fragments	-9671
▁referring	-9672
▁testimony	-9673
▁addressing	-9674
▁connecting	-9675
▁continuous	-9676
▁glittering	-9677
▁intentions	-9678
▁treatments	-9679
▁maintaining	-9680
▁considerably	-9681
ku	-9682
bir	-9683
elt	-9684
only	-9685
▁lag	-9686
▁osc	-9687
▁vit	-9688
level	-9689
ourse	-9690
▁bait	-9691
▁pope	-9692
▁whir	-9693
headed	-9694
▁audit	-9695
▁dates	-9696
▁sucks	-9697
▁backed	-9698
▁deemed	-9699
▁freely	-9700
▁lethal	-9701
▁misery	-9702
▁roland	-9703
incewind	-9704
▁crawled	-9705
▁dragons	-9706
▁editing	-9707
▁whistle	-9708
▁scenario	-9709
▁sections	-9710
▁ancestors	-9711
▁container	-9712
▁primitive	-9713
▁complaints	-9714
▁physically	-9715
▁meaningless	-9716
▁undoubtedly	-9717
▁fingerprints	-9718
▁interruption	-9719
▁certification	-9720
far	-9721
▁42	-9722
▁99	-9723
▁ll	-9724
bish	-9725
erts	-9726
iate	-9727
omin	-9728
▁cem	-9729
▁mug	-9730
▁ome	-9731
ethyl	-9732
tling	-9733
▁conj	-9734
▁gram	-9735
▁tops	-9736
▁unst	-9737
▁disin	-9738
▁elena	-9739
▁impul	-9740
▁latin	-9741
▁mines	-9742
▁minus	-9743
▁resum	-9744
▁urine	-9745
▁wrest	-9746
▁afghan	-9747
▁cultiv	-9748
▁curled	-9749
▁illust	-9750
▁luxury	-9751
▁tossed	-9752
▁writes	-9753
▁circuit	-9754
▁descend	-9755
▁dessert	-9756
▁gripped	-9757
▁inhabit	-9758
▁possess	-9759
▁raining	-9760
▁seventy	-9761
▁shields	-9762
aceutical	-9763
▁acquired	-9764
▁explains	-9765
▁infinite	-9766
▁obstacle	-9767
▁preserve	-9768
▁taxation	-9769
▁traveled	-9770
▁verified	-9771
▁certainty	-9772
▁defendant	-9773
▁evidently	-9774
▁favourite	-9775
▁locations	-9776
▁murdering	-9777
▁rincewind	-9778
▁staircase	-9779
▁agriculture	-9780
▁helicopters	-9781
▁expectations	-9782
▁unacceptable	-9783
▁documentation	-9784
vy	-9785
cal	-9786
away	-9787
inch	-9788
list	-9789
neum	-9790
▁lud	-9791
▁phr	-9792
three	-9793
▁aims	-9794
▁bald	-9795
▁bend	-9796
▁bore	-9797
▁lucy	-9798
▁rans	-9799
ijuana	-9800
▁canad	-9801
▁coins	-9802
▁crops	-9803
▁genes	-9804
▁impat	-9805
▁remun	-9806
▁shove	-9807
▁spons	-9808
▁syndr	-9809
ogether	-9810
▁agenda	-9811
▁boston	-9812
▁expans	-9813
▁intest	-9814
▁nigger	-9815
▁scenes	-9816
▁stance	-9817
▁sticks	-9818
▁sunset	-9819
▁wisdom	-9820
zzzzzzzz	-9821
▁encrypt	-9822
▁haunted	-9823
▁neglect	-9824
▁partial	-9825
▁planted	-9826
▁reverse	-9827
▁swollen	-9828
▁applying	-9829
▁clearing	-9830
▁enhanced	-9831
▁executed	-9832
▁fortress	-9833
▁opinions	-9834
▁reporter	-9835
▁shipping	-9836
▁theories	-9837
▁conflicts	-9838
▁curiosity	-9839
▁incapable	-9840
▁principal	-9841
▁boundaries	-9842
▁evacuation	-9843
▁opposition	-9844
▁represents	-9845
▁inspections	-9846
▁temporarily	-9847
▁concentrated	-9848
▁establishing	-9849
▁surprisingly	-9850
cr	-9851
cul	-9852
cup	-9853
pan	-9854
▁ek	-9855
star	-9856
▁coc	-9857
▁lew	-9858
oused	-9859
▁adam	-9860
▁coke	-9861
▁cups	-9862
▁leto	-9863
▁pudd	-9864
▁shud	-9865
▁ster	-9866
ilarly	-9867
person	-9868
▁actor	-9869
▁hides	-9870
▁jerry	-9871
▁lease	-9872
▁raven	-9873
▁squat	-9874
ocation	-9875
▁glowed	-9876
▁multip	-9877
▁reluct	-9878
▁trials	-9879
▁widely	-9880
appropri	-9881
▁airline	-9882
▁altered	-9883
▁dynamic	-9884
▁homosex	-9885
▁laundry	-9886
▁martial	-9887
▁reaches	-9888
▁shorter	-9889
▁abducted	-9890
▁billions	-9891
▁carriers	-9892
▁distress	-9893
▁philosop	-9894
▁syndrome	-9895
▁machinery	-9896
▁negotiate	-9897
▁nightfall	-9898
▁promising	-9899
▁similarly	-9900
▁submarine	-9901
▁approaches	-9902
di	-9903
bot	-9904
isy	-9905
six	-9906
vas	-9907
▁ls	-9908
alia	-9909
aste	-9910
eded	-9911
iper	-9912
quet	-9913
▁nud	-9914
▁rup	-9915
mails	-9916
ounce	-9917
▁chip	-9918
▁greg	-9919
▁grie	-9920
▁lick	-9921
▁lisa	-9922
▁mini	-9923
▁shim	-9924
▁brick	-9925
▁lance	-9926
▁rival	-9927
▁spoil	-9928
▁steep	-9929
▁whale	-9930
▁contem	-9931
▁mining	-9932
▁warmth	-9933
▁blessed	-9934
▁compete	-9935
▁disrupt	-9936
▁evolved	-9937
▁liberal	-9938
▁relaxed	-9939
▁sixteen	-9940
▁stunned	-9941
▁archives	-9942
▁articles	-9943
▁betrayal	-9944
▁freaking	-9945
▁ministry	-9946
▁promoted	-9947
▁refusing	-9948
▁sequence	-9949
▁synchron	-9950
▁addresses	-9951
▁configure	-9952
▁converted	-9953
▁correctly	-9954
▁elizabeth	-9955
▁ownership	-9956
▁responded	-9957
▁volunteer	-9958
▁governance	-9959
▁restricted	-9960
▁suspension	-9961
▁travelling	-9962
▁challenging	-9963
-6	-9964
.10	-9965
bet	-9966
dri	-9967
nap	-9968
oto	-9969
rek	-9970
bian	-9971
char	-9972
elia	-9973
ouch	-9974
robe	-9975
▁lyn	-9976
renia	-9977
▁barr	-9978
▁bicy	-9979
▁goss	-9980
▁karl	-9981
▁sack	-9982
▁soot	-9983
▁tips	-9984
▁2,000	-9985
▁eagle	-9986
▁elves	-9987
▁gases	-9988
▁medal	-9989
▁ruled	-9990
▁shone	-9991
▁trips	-9992
▁veins	-9993
▁arrows	-9994
▁bitten	-9995
▁hissed	-9996
▁lookin	-9997
▁meteor	-9998
▁modify	-9999
▁assured	-10000
▁bizarre	-10001
▁females	-10002
▁inherit	-10003
▁messing	-10004
▁municip	-10005
▁resolve	-10006
▁secrecy	-10007
▁strikes	-10008
▁brightly	-10009
▁employed	-10010
▁forecast	-10011
▁homework	-10012
▁managing	-10013
▁mobility	-10014
▁mushroom	-10015
▁outcomes	-10016
▁premises	-10017
▁resulted	-10018
▁catherine	-10019
▁defensive	-10020
▁initiated	-10021
▁survivors	-10022
▁violation	-10023
▁inadequate	-10024
▁initiative	-10025
▁recognised	-10026
▁communities	-10027
▁consequence	-10028
▁corporation	-10029
▁desperately	-10030
▁malfunction	-10031
▁conversations	-10032
nt	-10033
dad	-10034
erk	-10035
zan	-10036
▁34	-10037
▁ji	-10038
ench	-10039
hist	-10040
pace	-10041
ptic	-10042
▁250	-10043
▁gin	-10044
▁liz	-10045
▁ral	-10046
▁wax	-10047
alion	-10048
asped	-10049
world	-10050
▁burd	-10051
▁epid	-10052
▁epis	-10053
▁info	-10054
▁tens	-10055
shaped	-10056
uously	-10057
▁10:00	-10058
▁filed	-10059
▁julia	-10060
▁lined	-10061
▁motel	-10062
▁pneum	-10063
▁risky	-10064
▁roger	-10065
▁stain	-10066
▁tense	-10067
▁ultim	-10068
▁abused	-10069
▁brutal	-10070
▁depths	-10071
▁divide	-10072
▁domain	-10073
▁gettin	-10074
▁joseph	-10075
▁rhythm	-10076
▁serves	-10077
▁towers	-10078
▁tragic	-10079
ologists	-10080
▁buddies	-10081
▁candles	-10082
▁forming	-10083
▁mixture	-10084
▁pending	-10085
▁imported	-10086
▁restruct	-10087
▁weighing	-10088
▁commanded	-10089
▁corridors	-10090
▁intermedi	-10091
▁photograp	-10092
appropriate	-10093
▁originally	-10094
▁submission	-10095
▁suggesting	-10096
▁conclusions	-10097
▁illuminated	-10098
▁politicians	-10099
▁procurement	-10100
▁conventional	-10101
▁independence	-10102
▁interrupting	-10103
▁subsequently	-10104
▁beneficiaries	-10105
sl	-10106
hot	-10107
hyl	-10108
try	-10109
urb	-10110
▁38	-10111
▁cm	-10112
▁rh	-10113
aria	-10114
eled	-10115
elle	-10116
icon	-10117
lord	-10118
▁ape	-10119
▁chi	-10120
▁ned	-10121
▁tut	-10122
▁2003	-10123
▁bulk	-10124
▁font	-10125
▁leaf	-10126
▁loun	-10127
▁maps	-10128
▁ruth	-10129
▁sean	-10130
▁slay	-10131
▁males	-10132
▁masks	-10133
▁quota	-10134
▁raced	-10135
▁alumin	-10136
▁apprec	-10137
▁avenue	-10138
▁busted	-10139
▁fridge	-10140
▁jewels	-10141
▁nicely	-10142
▁poland	-10143
▁racing	-10144
▁slowed	-10145
▁subtle	-10146
▁artists	-10147
▁balloon	-10148
▁carrier	-10149
▁conquer	-10150
▁corners	-10151
▁lifting	-10152
▁marshal	-10153
isticated	-10154
▁accuracy	-10155
▁emerging	-10156
▁fourteen	-10157
▁incurred	-10158
▁prevents	-10159
▁sensible	-10160
▁severely	-10161
▁strictly	-10162
▁sympathy	-10163
▁villages	-10164
▁vomiting	-10165
▁arresting	-10166
▁dedicated	-10167
▁formation	-10168
▁moustache	-10169
▁pointless	-10170
▁altogether	-10171
▁indication	-10172
▁proportion	-10173
▁encouraging	-10174
90	-10175
chi	-10176
cod	-10177
isk	-10178
tra	-10179
una	-10180
▁zo	-10181
eria	-10182
greg	-10183
mill	-10184
▁flan	-10185
▁inex	-10186
▁outs	-10187
▁toll	-10188
▁wool	-10189
▁alike	-10190
▁annoy	-10191
▁argue	-10192
▁brace	-10193
▁comic	-10194
▁curve	-10195
▁kings	-10196
▁mafia	-10197
▁poker	-10198
▁polar	-10199
▁tumor	-10200
▁allerg	-10201
▁andrew	-10202
▁assemb	-10203
▁disput	-10204
▁equity	-10205
▁portug	-10206
▁tasted	-10207
▁abandon	-10208
▁pirates	-10209
▁refusal	-10210
▁sliding	-10211
▁traitor	-10212
▁arrogant	-10213
▁engineer	-10214
▁frequent	-10215
▁anonymous	-10216
▁calculate	-10217
▁exclaimed	-10218
▁expansion	-10219
▁intervals	-10220
▁migration	-10221
▁perimeter	-10222
▁attempting	-10223
▁legitimate	-10224
▁recognition	-10225
▁inappropriate	-10226
ju	-10227
awa	-10228
asha	-10229
conn	-10230
rily	-10231
▁ana	-10232
▁kaz	-10233
▁sid	-10234
acent	-10235
ifier	-10236
▁2001	-10237
▁ache	-10238
▁asyl	-10239
▁dont	-10240
▁ease	-10241
▁foam	-10242
▁gary	-10243
▁gosh	-10244
▁herd	-10245
▁kong	-10246
▁pete	-10247
▁sins	-10248
▁sway	-10249
abling	-10250
iating	-10251
▁baked	-10252
▁fella	-10253
▁hilar	-10254
▁hover	-10255
▁jacob	-10256
▁kelly	-10257
▁kling	-10258
▁macro	-10259
▁onion	-10260
▁reset	-10261
▁rumor	-10262
▁sandy	-10263
▁sweep	-10264
▁tubes	-10265
▁vault	-10266
oration	-10267
▁bureau	-10268
▁canada	-10269
▁dumped	-10270
▁garion	-10271
▁halted	-10272
▁wagons	-10273
▁anxious	-10274
▁courses	-10275
▁minimal	-10276
▁naughty	-10277
▁offices	-10278
▁tactics	-10279
▁actively	-10280
▁husbands	-10281
▁imprison	-10282
▁incoming	-10283
▁missions	-10284
▁mortgage	-10285
▁profound	-10286
▁supports	-10287
▁appointed	-10288
▁contacted	-10289
▁continent	-10290
▁interface	-10291
▁murderers	-10292
▁rebellion	-10293
▁threatens	-10294
▁wandering	-10295
▁amendments	-10296
▁innovative	-10297
▁performing	-10298
▁phenomenon	-10299
▁questioned	-10300
▁thoroughly	-10301
▁respiratory	-10302
▁sophisticated	-10303
▁pharmaceutical	-10304
▁reinforcements	-10305
rin	-10306
uum	-10307
wen	-10308
arer	-10309
aver	-10310
icts	-10311
umph	-10312
▁sob	-10313
ordan	-10314
ystem	-10315
▁8:00	-10316
▁bean	-10317
▁carc	-10318
▁chim	-10319
▁jell	-10320
▁ripp	-10321
▁scab	-10322
▁sits	-10323
▁supp	-10324
▁swir	-10325
▁welf	-10326
▁clubs	-10327
▁drama	-10328
▁ratio	-10329
▁semin	-10330
▁shred	-10331
▁sperm	-10332
▁waits	-10333
▁weary	-10334
▁blades	-10335
▁booked	-10336
▁colony	-10337
▁hyster	-10338
▁magrat	-10339
▁messed	-10340
▁nathan	-10341
▁pirate	-10342
▁portra	-10343
▁racist	-10344
▁sharks	-10345
stration	-10346
▁austral	-10347
▁catalog	-10348
▁catches	-10349
▁electro	-10350
▁hideous	-10351
▁stretch	-10352
▁treason	-10353
▁carriage	-10354
▁cautious	-10355
▁gigantic	-10356
▁supplier	-10357
▁accompany	-10358
▁apologise	-10359
▁occasions	-10360
▁struggled	-10361
▁horizontal	-10362
▁immigration	-10363
▁suggestions	-10364
▁demonstration	-10365
did	-10366
gia	-10367
kar	-10368
yer	-10369
▁ov	-10370
aeda	-10371
ethe	-10372
olin	-10373
stri	-10374
▁tet	-10375
fting	-10376
ighed	-10377
ridge	-10378
urity	-10379
▁angu	-10380
▁diab	-10381
▁flut	-10382
▁lane	-10383
▁ling	-10384
▁pitt	-10385
▁ramp	-10386
▁tess	-10387
giving	-10388
inging	-10389
ussing	-10390
▁ankle	-10391
▁bears	-10392
▁crept	-10393
▁deals	-10394
▁diary	-10395
▁flown	-10396
▁marsh	-10397
▁perce	-10398
▁shops	-10399
▁stall	-10400
▁texas	-10401
▁unlaw	-10402
▁brakes	-10403
▁lasted	-10404
▁ninety	-10405
▁pedest	-10406
▁pepper	-10407
▁rested	-10408
▁senses	-10409
▁shirts	-10410
▁sodium	-10411
▁suited	-10412
▁affects	-10413
▁caramon	-10414
▁segment	-10415
▁shotgun	-10416
▁emission	-10417
▁generous	-10418
▁mentally	-10419
▁sacrific	-10420
▁splendid	-10421
▁stubborn	-10422
▁ultimate	-10423
▁achieving	-10424
▁complaint	-10425
▁exemption	-10426
▁indicator	-10427
▁marriages	-10428
▁pollution	-10429
▁purchased	-10430
▁spiritual	-10431
▁worthless	-10432
▁accessible	-10433
▁conversion	-10434
▁foundation	-10435
▁requesting	-10436
▁acknowledge	-10437
▁productivity	-10438
▁remuneration	-10439
ati	-10440
his	-10441
lit	-10442
ubs	-10443
▁39	-10444
▁cu	-10445
bard	-10446
hate	-10447
iary	-10448
pson	-10449
rich	-10450
▁yep	-10451
asked	-10452
ilian	-10453
ocity	-10454
rogen	-10455
shine	-10456
storm	-10457
▁aged	-10458
▁bust	-10459
▁hats	-10460
▁icon	-10461
▁jaws	-10462
▁keen	-10463
▁mead	-10464
▁moms	-10465
▁spat	-10466
▁void	-10467
advant	-10468
▁arise	-10469
▁bonds	-10470
▁gains	-10471
▁kevin	-10472
▁merry	-10473
▁momma	-10474
▁reads	-10475
▁rehab	-10476
▁title	-10477
▁amazed	-10478
▁carved	-10479
▁labels	-10480
▁prophe	-10481
▁rifles	-10482
▁seized	-10483
▁closure	-10484
▁couples	-10485
▁marines	-10486
▁prolong	-10487
▁triumph	-10488
▁vaccine	-10489
▁watches	-10490
▁welfare	-10491
▁cellular	-10492
▁hydrogen	-10493
▁matching	-10494
▁warnings	-10495
▁disadvant	-10496
▁fireplace	-10497
▁inflation	-10498
▁marijuana	-10499
▁poisonous	-10500
▁possessed	-10501
▁favourable	-10502
▁occasional	-10503
▁withdrawal	-10504
▁accelerated	-10505
▁battlefield	-10506
▁explanations	-10507
▁classification	-10508
31	-10509
bul	-10510
jud	-10511
low	-10512
mia	-10513
rob	-10514
via	-10515
weg	-10516
▁dj	-10517
angs	-10518
conf	-10519
ifer	-10520
iker	-10521
inks	-10522
nuts	-10523
pers	-10524
riel	-10525
rons	-10526
tail	-10527
zens	-10528
▁etc	-10529
▁mah	-10530
▁syl	-10531
▁vik	-10532
agram	-10533
eight	-10534
imson	-10535
iscal	-10536
range	-10537
▁barg	-10538
▁dizz	-10539
▁inad	-10540
▁obey	-10541
▁rect	-10542
▁rehe	-10543
▁weep	-10544
asters	-10545
liness	-10546
▁3,000	-10547
▁amate	-10548
▁carav	-10549
▁crews	-10550
▁decis	-10551
▁dolph	-10552
▁fluct	-10553
▁hairy	-10554
▁rises	-10555
▁roses	-10556
▁sails	-10557
▁socks	-10558
▁steak	-10559
▁thorn	-10560
loading	-10561
▁asylum	-10562
▁fiscal	-10563
▁margin	-10564
▁massac	-10565
▁reckon	-10566
▁rumors	-10567
▁rushed	-10568
▁stroke	-10569
▁talkin	-10570
▁upside	-10571
▁anytime	-10572
▁bernard	-10573
▁breaths	-10574
▁compuls	-10575
▁confisc	-10576
▁marking	-10577
▁teenage	-10578
▁immunity	-10579
▁monaster	-10580
▁patience	-10581
▁realised	-10582
▁thirteen	-10583
▁hilarious	-10584
▁measuring	-10585
▁premature	-10586
▁respected	-10587
▁revealing	-10588
▁withdrawn	-10589
▁references	-10590
▁suspicions	-10591
▁permanently	-10592
▁commissioner	-10593
▁embarrassment	-10594
ava	-10595
dep	-10596
gos	-10597
lex	-10598
mph	-10599
plo	-10600
tal	-10601
▁37	-10602
▁gel	-10603
▁oak	-10604
▁pam	-10605
aware	-10606
eling	-10607
etery	-10608
human	-10609
icate	-10610
igned	-10611
inter	-10612
isers	-10613
osure	-10614
stick	-10615
▁cort	-10616
▁crab	-10617
▁hong	-10618
▁kyle	-10619
▁lazy	-10620
▁pave	-10621
▁pron	-10622
▁surg	-10623
▁zomb	-10624
olving	-10625
▁allah	-10626
▁archa	-10627
▁diarr	-10628
▁grasp	-10629
▁overl	-10630
▁patch	-10631
▁robes	-10632
▁seren	-10633
▁spots	-10634
▁topic	-10635
comings	-10636
respect	-10637
working	-10638
▁calmly	-10639
▁flowed	-10640
▁gordon	-10641
▁howard	-10642
▁kidnap	-10643
▁offset	-10644
▁relate	-10645
▁uncomm	-10646
▁concert	-10647
▁disconn	-10648
▁entries	-10649
▁folders	-10650
▁happily	-10651
▁removal	-10652
▁retired	-10653
▁rubbish	-10654
▁severed	-10655
▁shooter	-10656
▁breeding	-10657
▁cemetery	-10658
▁confront	-10659
▁explicit	-10660
▁licences	-10661
▁mustache	-10662
▁obsessed	-10663
▁sunshine	-10664
▁demanding	-10665
▁smuggling	-10666
▁surviving	-10667
▁withstand	-10668
▁beneficial	-10669
▁earthquake	-10670
▁integrated	-10671
▁literature	-10672
▁allegations	-10673
▁beneficiary	-10674
▁inhabitants	-10675
▁announcement	-10676
▁manufacturer	-10677
▁satisfaction	-10678
▁shortcomings	-10679
▁complementary	-10680
pat	-10681
azed	-10682
mine	-10683
some	-10684
▁dip	-10685
▁lec	-10686
▁rou	-10687
▁tin	-10688
itory	-10689
leton	-10690
renal	-10691
▁abst	-10692
▁bert	-10693
▁brad	-10694
▁febr	-10695
▁oven	-10696
▁sofa	-10697
▁solo	-10698
▁ties	-10699
▁todd	-10700
▁vows	-10701
ainted	-10702
▁await	-10703
▁chrom	-10704
▁disse	-10705
▁erase	-10706
▁fetch	-10707
▁spies	-10708
▁sunny	-10709
▁unsub	-10710
▁acquis	-10711
▁addict	-10712
▁athlet	-10713
▁biting	-10714
▁carlos	-10715
▁costly	-10716
▁dozens	-10717
▁lodged	-10718
▁lovers	-10719
▁nurses	-10720
▁overhe	-10721
▁sensed	-10722
▁starve	-10723
▁syring	-10724
▁versus	-10725
▁weighs	-10726
▁wilder	-10727
▁austria	-10728
▁baggage	-10729
▁chewing	-10730
▁damages	-10731
▁gleamed	-10732
▁scratch	-10733
▁strings	-10734
▁summary	-10735
▁traders	-10736
conscious	-10737
▁crouched	-10738
▁february	-10739
▁offences	-10740
▁polished	-10741
▁stunning	-10742
▁decorated	-10743
▁detection	-10744
▁instincts	-10745
▁magazines	-10746
▁staggered	-10747
▁switching	-10748
▁translate	-10749
▁aggressive	-10750
▁allocation	-10751
▁interviews	-10752
▁journalist	-10753
▁regardless	-10754
▁coordinates	-10755
▁declaration	-10756
▁discussions	-10757
▁restriction	-10758
▁capabilities	-10759
▁experiencing	-10760
▁presidential	-10761
▁discrimination	-10762
-7	-10763
bie	-10764
hou	-10765
oli	-10766
ori	-10767
gent	-10768
hell	-10769
mble	-10770
orse	-10771
orus	-10772
ysis	-10773
▁duc	-10774
▁dvd	-10775
▁isl	-10776
▁lac	-10777
▁leo	-10778
arity	-10779
iolet	-10780
rates	-10781
table	-10782
▁dazz	-10783
▁envy	-10784
▁foss	-10785
▁gluc	-10786
▁goog	-10787
▁lamb	-10788
▁pony	-10789
▁roar	-10790
▁dynam	-10791
▁elbow	-10792
▁intol	-10793
▁kitty	-10794
▁locks	-10795
▁maneu	-10796
▁posts	-10797
▁wider	-10798
▁aerial	-10799
▁cables	-10800
▁cotton	-10801
▁courty	-10802
▁curved	-10803
▁divine	-10804
▁heroin	-10805
▁hypers	-10806
▁onions	-10807
▁rental	-10808
▁seldom	-10809
▁blinked	-10810
▁centres	-10811
▁dealers	-10812
▁fingern	-10813
▁slender	-10814
▁wealthy	-10815
▁incorpor	-10816
▁protects	-10817
▁striking	-10818
▁eliminate	-10819
▁astonished	-10820
▁conducting	-10821
▁delivering	-10822
▁astonishing	-10823
▁functioning	-10824
▁disappearance	-10825
fu	-10826
.12	-10827
whe	-10828
▁01	-10829
fect	-10830
▁cun	-10831
▁ket	-10832
▁kle	-10833
▁lut	-10834
chief	-10835
ovich	-10836
▁frig	-10837
▁hamm	-10838
▁khan	-10839
▁mamm	-10840
▁meds	-10841
▁puff	-10842
▁untr	-10843
▁5,000	-10844
▁advoc	-10845
▁barry	-10846
▁beats	-10847
▁neckl	-10848
▁pearl	-10849
▁scram	-10850
▁trend	-10851
▁tummy	-10852
▁widow	-10853
atching	-10854
▁catast	-10855
▁commod	-10856
▁galaxy	-10857
▁incons	-10858
▁jordan	-10859
▁malice	-10860
▁motive	-10861
▁notify	-10862
▁overse	-10863
▁parade	-10864
▁bruises	-10865
▁circles	-10866
▁coastal	-10867
▁defence	-10868
▁drifted	-10869
▁handled	-10870
▁offense	-10871
▁predict	-10872
▁printer	-10873
▁robbing	-10874
▁trailer	-10875
▁tunnels	-10876
▁viruses	-10877
▁awakened	-10878
▁bankrupt	-10879
▁clicking	-10880
▁dinosaur	-10881
▁drowning	-10882
▁employer	-10883
▁graduate	-10884
▁organize	-10885
▁steadily	-10886
▁affecting	-10887
▁alexander	-10888
▁astronaut	-10889
▁classroom	-10890
▁gratitude	-10891
▁incentive	-10892
▁intensity	-10893
▁seventeen	-10894
▁slightest	-10895
▁complained	-10896
▁dimensions	-10897
▁encouraged	-10898
▁industries	-10899
▁navigation	-10900
▁probability	-10901
▁accidentally	-10902
pen	-10903
rus	-10904
▁ni	-10905
ader	-10906
mond	-10907
rium	-10908
▁cod	-10909
▁gil	-10910
▁lav	-10911
▁ner	-10912
▁pla	-10913
elect	-10914
enger	-10915
inson	-10916
state	-10917
▁bees	-10918
▁brus	-10919
▁cape	-10920
▁chop	-10921
▁lest	-10922
▁peas	-10923
▁rack	-10924
▁babys	-10925
▁blunt	-10926
▁bunny	-10927
▁edges	-10928
▁enlar	-10929
▁marty	-10930
▁revel	-10931
▁rural	-10932
▁shack	-10933
▁snack	-10934
▁squir	-10935
ascular	-10936
▁celest	-10937
▁cruise	-10938
▁cylind	-10939
▁dances	-10940
▁duncan	-10941
▁nausea	-10942
▁neglig	-10943
▁nether	-10944
▁sleeve	-10945
▁storms	-10946
▁autopsy	-10947
▁cardiac	-10948
▁desires	-10949
▁leaning	-10950
▁metabol	-10951
▁observe	-10952
▁physics	-10953
▁rabbits	-10954
▁slowing	-10955
▁speaker	-10956
▁thereby	-10957
▁contempt	-10958
▁creative	-10959
▁deposits	-10960
▁diagnost	-10961
▁endanger	-10962
▁inconven	-10963
▁inviting	-10964
▁merchant	-10965
▁moisture	-10966
▁swelling	-10967
▁tendency	-10968
▁firefight	-10969
▁fulfilled	-10970
▁genuinely	-10971
▁imaginary	-10972
▁moonlight	-10973
▁objection	-10974
▁sustained	-10975
▁accelerate	-10976
▁designated	-10977
▁discussing	-10978
▁engagement	-10979
▁undercover	-10980
▁anticipated	-10981
▁distributed	-10982
▁liabilities	-10983
▁recruitment	-10984
▁associations	-10985
▁representing	-10986
▁consultations	-10987
▁justification	-10988
ng	-10989
.00	-10990
uld	-10991
▁44	-10992
▁og	-10993
bird	-10994
bone	-10995
path	-10996
pole	-10997
▁bou	-10998
▁fri	-10999
▁naz	-11000
▁omn	-11001
▁tak	-11002
▁vow	-11003
anted	-11004
fleet	-11005
words	-11006
▁1990	-11007
▁abol	-11008
▁bass	-11009
▁chun	-11010
▁dave	-11011
▁gigg	-11012
▁limb	-11013
▁mage	-11014
▁morg	-11015
▁recy	-11016
▁sard	-11017
handed	-11018
herent	-11019
▁boast	-11020
▁patri	-11021
▁punct	-11022
▁ralph	-11023
▁scrub	-11024
▁subsc	-11025
▁troll	-11026
ointing	-11027
quality	-11028
section	-11029
▁absent	-11030
▁alfred	-11031
▁coffin	-11032
▁forbid	-11033
▁google	-11034
▁jammed	-11035
▁precip	-11036
▁scares	-11037
▁snakes	-11038
▁tonnes	-11039
▁100,000	-11040
▁apprent	-11041
▁betting	-11042
▁cocaine	-11043
▁disable	-11044
▁failing	-11045
▁guarded	-11046
▁issuing	-11047
▁lecture	-11048
▁pouring	-11049
▁sailors	-11050
▁symbols	-11051
▁torment	-11052
▁vietnam	-11053
▁visions	-11054
▁volumes	-11055
▁comrades	-11056
▁interval	-11057
▁morality	-11058
▁retrieve	-11059
▁sexually	-11060
▁allocated	-11061
▁hollywood	-11062
▁violently	-11063
▁grandchild	-11064
▁reinforced	-11065
▁negotiating	-11066
▁outstanding	-11067
▁prosecution	-11068
su	-11069
arn	-11070
lis	-11071
uan	-11072
▁gd	-11073
▁lf	-11074
▁oy	-11075
anna	-11076
arus	-11077
lson	-11078
plus	-11079
▁ais	-11080
▁cer	-11081
▁ink	-11082
▁jag	-11083
▁lex	-11084
▁lub	-11085
▁mes	-11086
▁yog	-11087
amine	-11088
etera	-11089
rians	-11090
▁boom	-11091
▁chew	-11092
▁cole	-11093
▁doom	-11094
▁dorm	-11095
▁flor	-11096
▁hast	-11097
▁helm	-11098
▁quad	-11099
▁shaw	-11100
▁stif	-11101
effect	-11102
igning	-11103
▁aloud	-11104
▁anton	-11105
▁cakes	-11106
▁delta	-11107
▁frown	-11108
▁paras	-11109
▁petty	-11110
▁prote	-11111
▁protr	-11112
▁sarge	-11113
▁scout	-11114
▁shaft	-11115
▁tanis	-11116
▁timet	-11117
▁torch	-11118
▁traps	-11119
▁angels	-11120
▁claire	-11121
▁immort	-11122
▁modest	-11123
▁ransom	-11124
▁statue	-11125
▁theirs	-11126
▁tribes	-11127
▁devoted	-11128
▁dwarves	-11129
▁leonard	-11130
▁shallow	-11131
▁squeeze	-11132
▁abnormal	-11133
▁activate	-11134
▁collabor	-11135
▁composed	-11136
▁cultures	-11137
▁enabling	-11138
▁incompet	-11139
▁involves	-11140
▁manifest	-11141
▁railroad	-11142
▁sideways	-11143
▁unlawful	-11144
▁wrinkled	-11145
▁databases	-11146
▁dimension	-11147
▁nationals	-11148
▁accidental	-11149
▁collective	-11150
▁eliminated	-11151
▁exhibition	-11152
▁outrageous	-11153
▁recipients	-11154
▁achievement	-11155
▁assessments	-11156
▁determining	-11157
▁flexibility	-11158
▁astonishment	-11159
▁constitution	-11160
▁intellectual	-11161
▁appropriations	-11162
▁qualifications	-11163
uy	-11164
eng	-11165
ols	-11166
spe	-11167
elin	-11168
rine	-11169
unct	-11170
▁196	-11171
▁blu	-11172
▁lob	-11173
▁tyr	-11174
▁bisc	-11175
▁braz	-11176
▁coma	-11177
▁enzy	-11178
▁hamb	-11179
▁mice	-11180
▁ming	-11181
▁mont	-11182
▁odor	-11183
▁sled	-11184
▁stem	-11185
▁suic	-11186
ancies	-11187
ounted	-11188
▁abund	-11189
▁crawl	-11190
▁globe	-11191
▁naval	-11192
▁rober	-11193
▁sabot	-11194
▁sheer	-11195
▁spart	-11196
▁wrath	-11197
▁candle	-11198
▁counts	-11199
▁donkey	-11200
▁entert	-11201
▁flavor	-11202
▁impair	-11203
▁rented	-11204
▁shrimp	-11205
▁unjust	-11206
▁wildly	-11207
▁arising	-11208
▁banging	-11209
▁circled	-11210
▁constra	-11211
▁gateway	-11212
▁haircut	-11213
▁refresh	-11214
▁tearing	-11215
operation	-11216
▁annually	-11217
▁charging	-11218
▁coverage	-11219
▁financed	-11220
▁findings	-11221
▁glorious	-11222
▁hardware	-11223
▁indirect	-11224
▁marshall	-11225
▁registry	-11226
▁breakdown	-11227
▁courtyard	-11228
▁molecules	-11229
▁nervously	-11230
▁explaining	-11231
▁explosions	-11232
▁immigrants	-11233
▁composition	-11234
▁demonstrate	-11235
▁geographical	-11236
▁entertainment	-11237
▁motherfucking	-11238
▁restructuring	-11239
vi	-11240
alo	-11241
auc	-11242
din	-11243
nin	-11244
oks	-11245
oln	-11246
opy	-11247
rak	-11248
tar	-11249
▁hr	-11250
amin	-11251
itus	-11252
oran	-11253
rell	-11254
▁800	-11255
▁mmm	-11256
▁nun	-11257
▁til	-11258
cling	-11259
mered	-11260
seven	-11261
ucted	-11262
white	-11263
▁1992	-11264
▁9:00	-11265
▁coin	-11266
▁lump	-11267
▁pars	-11268
▁reun	-11269
▁slap	-11270
▁succ	-11271
▁sulf	-11272
▁tide	-11273
acious	-11274
itated	-11275
ograms	-11276
▁bacon	-11277
▁diver	-11278
▁haplo	-11279
▁lewis	-11280
▁maxim	-11281
▁mitig	-11282
▁wires	-11283
ignment	-11284
▁apples	-11285
▁archae	-11286
▁deport	-11287
▁healed	-11288
▁maniac	-11289
▁metall	-11290
▁miller	-11291
▁polite	-11292
▁restra	-11293
▁theore	-11294
▁trends	-11295
▁triple	-11296
▁backing	-11297
▁chicago	-11298
▁comrade	-11299
▁conform	-11300
▁convent	-11301
▁declare	-11302
▁legally	-11303
▁patrick	-11304
▁radical	-11305
▁assembly	-11306
▁blessing	-11307
▁inserted	-11308
▁reserves	-11309
▁shrugged	-11310
▁uncommon	-11311
▁honeymoon	-11312
▁offensive	-11313
▁renewable	-11314
▁sanctions	-11315
▁centimeters	-11316
▁potentially	-11317
▁translation	-11318
▁implications	-11319
▁parliamentary	-11320
gal	-11321
nan	-11322
wig	-11323
anta	-11324
boat	-11325
hara	-11326
orph	-11327
spar	-11328
▁jin	-11329
▁obl	-11330
▁sco	-11331
▁vod	-11332
anche	-11333
bbled	-11334
llers	-11335
▁bake	-11336
▁hoof	-11337
▁lily	-11338
▁rank	-11339
▁trim	-11340
▁unim	-11341
ifully	-11342
▁array	-11343
▁charm	-11344
▁dwell	-11345
▁kneel	-11346
▁oddly	-11347
▁packs	-11348
▁rains	-11349
▁scrap	-11350
▁strip	-11351
▁tasty	-11352
▁width	-11353
▁albert	-11354
▁armour	-11355
▁awaits	-11356
▁caring	-11357
▁equals	-11358
▁licens	-11359
▁notion	-11360
▁pencil	-11361
▁roared	-11362
▁shaken	-11363
▁walter	-11364
▁wrists	-11365
sparhawk	-11366
▁adrenal	-11367
▁cabinet	-11368
▁capsule	-11369
▁crimson	-11370
▁drought	-11371
▁floated	-11372
▁intimid	-11373
▁lantern	-11374
▁pacific	-11375
▁persist	-11376
▁quarant	-11377
▁rebuild	-11378
▁reconst	-11379
▁sausage	-11380
▁streams	-11381
▁toilets	-11382
▁undergo	-11383
▁weighed	-11384
▁canceled	-11385
▁dragging	-11386
▁flashing	-11387
▁hermione	-11388
▁mattress	-11389
▁memorial	-11390
▁ordering	-11391
▁portrait	-11392
▁tolerate	-11393
▁velocity	-11394
▁websites	-11395
▁believing	-11396
▁engineers	-11397
▁monastery	-11398
▁providers	-11399
▁replacing	-11400
▁starfleet	-11401
▁remarkably	-11402
▁ultimately	-11403
▁underwater	-11404
▁ventilation	-11405
▁individually	-11406
▁strengthening	-11407
tz	-11408
bec	-11409
des	-11410
fen	-11411
non	-11412
oro	-11413
osc	-11414
▁07	-11415
▁62	-11416
▁dy	-11417
atis	-11418
econ	-11419
rays	-11420
rics	-11421
tles	-11422
▁hoc	-11423
▁jab	-11424
▁jos	-11425
▁ker	-11426
▁phy	-11427
▁ree	-11428
chlor	-11429
ighty	-11430
▁drow	-11431
▁garr	-11432
▁hark	-11433
▁lust	-11434
▁mara	-11435
▁numb	-11436
▁pall	-11437
▁poul	-11438
▁smar	-11439
houses	-11440
ivable	-11441
lander	-11442
phones	-11443
▁aster	-11444
▁caval	-11445
▁cocks	-11446
▁crust	-11447
▁dense	-11448
▁orche	-11449
▁query	-11450
▁sally	-11451
phrenia	-11452
▁fitted	-11453
▁greece	-11454
▁judged	-11455
▁lesser	-11456
▁melted	-11457
▁polish	-11458
▁resemb	-11459
▁sailed	-11460
▁scouts	-11461
▁shoved	-11462
▁treaty	-11463
▁auction	-11464
▁judging	-11465
▁needles	-11466
▁risking	-11467
▁slapped	-11468
▁whereas	-11469
▁antibiot	-11470
▁cheerful	-11471
▁crawling	-11472
▁dripping	-11473
▁equality	-11474
▁feathers	-11475
▁forgiven	-11476
▁reserved	-11477
▁sampling	-11478
▁stumbled	-11479
▁surgical	-11480
▁automated	-11481
▁distances	-11482
▁economics	-11483
▁heartbeat	-11484
▁privately	-11485
▁resembled	-11486
▁scratched	-11487
▁targeting	-11488
▁flashlight	-11489
▁reductions	-11490
▁frequencies	-11491
▁significance	-11492
▁specification	-11493
iox	-11494
atin	-11495
gins	-11496
last	-11497
oric	-11498
page	-11499
rade	-11500
sels	-11501
▁dia	-11502
▁raz	-11503
▁tox	-11504
anity	-11505
otics	-11506
phant	-11507
stant	-11508
▁boil	-11509
▁dale	-11510
▁eyel	-11511
▁hier	-11512
▁hint	-11513
▁myst	-11514
▁neur	-11515
▁reim	-11516
▁ribb	-11517
bridge	-11518
itudes	-11519
retion	-11520
▁amber	-11521
▁derog	-11522
▁energ	-11523
▁fishe	-11524
▁laure	-11525
▁negro	-11526
▁pause	-11527
▁probe	-11528
▁recur	-11529
colored	-11530
quisite	-11531
▁argent	-11532
▁diving	-11533
▁hallow	-11534
▁harass	-11535
▁heroic	-11536
▁laying	-11537
▁paraly	-11538
▁philip	-11539
▁posted	-11540
▁taxpay	-11541
▁cheated	-11542
▁confron	-11543
▁decides	-11544
▁entitle	-11545
▁interim	-11546
▁travels	-11547
▁chambers	-11548
▁deceased	-11549
▁elephant	-11550
▁ignorant	-11551
▁menacing	-11552
▁provider	-11553
▁refugees	-11554
▁reviewed	-11555
▁scholars	-11556
▁shutting	-11557
▁stepping	-11558
▁allowance	-11559
▁detention	-11560
▁diagnosis	-11561
▁expanding	-11562
▁precision	-11563
▁qualified	-11564
▁vegetable	-11565
▁automobile	-11566
▁compulsory	-11567
▁distracted	-11568
▁psychopath	-11569
▁calculating	-11570
▁represented	-11571
▁supervisory	-11572
▁alternatives	-11573
▁preparations	-11574
aza	-11575
cat	-11576
ele	-11577
fol	-11578
hea	-11579
osa	-11580
▁55	-11581
▁va	-11582
achy	-11583
ctic	-11584
ilst	-11585
olds	-11586
otes	-11587
plan	-11588
rers	-11589
▁aye	-11590
▁kay	-11591
▁roy	-11592
activ	-11593
ioned	-11594
orous	-11595
piece	-11596
think	-11597
▁heap	-11598
▁nail	-11599
▁pond	-11600
▁rays	-11601
▁scor	-11602
▁sher	-11603
▁tran	-11604
▁vlad	-11605
▁wond	-11606
filled	-11607
pelled	-11608
▁buses	-11609
▁caves	-11610
▁cocon	-11611
▁dairy	-11612
▁handc	-11613
▁paces	-11614
▁ports	-11615
▁prank	-11616
▁puppy	-11617
▁rusty	-11618
▁texts	-11619
▁ultra	-11620
▁verte	-11621
ittered	-11622
orrhage	-11623
through	-11624
▁crocod	-11625
▁echoed	-11626
▁kenned	-11627
▁shakes	-11628
▁shifts	-11629
▁shiver	-11630
▁supern	-11631
▁timing	-11632
▁amateur	-11633
▁anthony	-11634
▁arrests	-11635
▁awarded	-11636
▁holster	-11637
▁outlook	-11638
▁robbers	-11639
▁surgeon	-11640
▁behaving	-11641
▁bellowed	-11642
▁repaired	-11643
▁sessions	-11644
▁sidewalk	-11645
▁template	-11646
▁tomatoes	-11647
▁assassins	-11648
▁concealed	-11649
▁counselor	-11650
▁fisheries	-11651
▁irritated	-11652
▁isolation	-11653
▁phenomena	-11654
▁seemingly	-11655
▁separation	-11656
▁mathematics	-11657
fr	-11658
hai	-11659
inn	-11660
rah	-11661
rix	-11662
sis	-11663
▁eb	-11664
▁ib	-11665
agen	-11666
aves	-11667
nian	-11668
olas	-11669
spec	-11670
▁ace	-11671
▁mik	-11672
angle	-11673
space	-11674
▁biod	-11675
▁chal	-11676
▁encl	-11677
▁godd	-11678
▁hugh	-11679
▁pend	-11680
▁plea	-11681
▁rebo	-11682
▁shri	-11683
▁tray	-11684
▁annie	-11685
▁bases	-11686
▁bells	-11687
▁gangs	-11688
▁jeans	-11689
▁mates	-11690
▁parks	-11691
▁scarf	-11692
▁scars	-11693
▁sturm	-11694
▁tourn	-11695
ructive	-11696
▁amused	-11697
▁balcon	-11698
▁berlin	-11699
▁bucket	-11700
▁bushes	-11701
▁carrot	-11702
▁carter	-11703
▁fulfil	-11704
▁ginger	-11705
▁hooked	-11706
▁immune	-11707
▁interf	-11708
▁masked	-11709
▁oldest	-11710
▁prejud	-11711
▁shorts	-11712
▁shrine	-11713
▁vacuum	-11714
▁adapted	-11715
▁barking	-11716
▁bicycle	-11717
▁captive	-11718
▁ensured	-11719
▁excuses	-11720
▁impacts	-11721
▁manners	-11722
▁massage	-11723
▁matched	-11724
▁pierced	-11725
▁premium	-11726
▁scandal	-11727
▁startup	-11728
▁thirsty	-11729
▁venture	-11730
▁almighty	-11731
▁atlantic	-11732
▁disputes	-11733
▁dissemin	-11734
▁insanity	-11735
▁intently	-11736
▁necklace	-11737
▁searches	-11738
▁sweating	-11739
▁condemned	-11740
▁employers	-11741
▁municipal	-11742
▁publicity	-11743
▁requiring	-11744
▁universal	-11745
▁accusation	-11746
▁preference	-11747
▁reflection	-11748
▁terminated	-11749
▁volunteers	-11750
▁genetically	-11751
▁ingredients	-11752
▁limitations	-11753
▁programming	-11754
▁prohibition	-11755
▁universities	-11756
▁considerations	-11757
43	-11758
mg	-11759
chy	-11760
may	-11761
sea	-11762
ugs	-11763
arts	-11764
door	-11765
eman	-11766
etta	-11767
hast	-11768
mind	-11769
tive	-11770
ulpt	-11771
▁ads	-11772
▁kam	-11773
▁viv	-11774
▁von	-11775
atter	-11776
compl	-11777
oster	-11778
ounds	-11779
▁cant	-11780
▁lapt	-11781
▁nope	-11782
▁rhin	-11783
▁riot	-11784
arming	-11785
eption	-11786
ribing	-11787
▁agony	-11788
▁arbit	-11789
▁batch	-11790
▁camps	-11791
▁merge	-11792
▁picks	-11793
▁rebel	-11794
▁scans	-11795
bitious	-11796
ustomed	-11797
writing	-11798
▁cycles	-11799
▁dancer	-11800
▁flared	-11801
▁fooled	-11802
▁gastro	-11803
▁hurric	-11804
▁indign	-11805
▁intens	-11806
▁lacked	-11807
▁peanut	-11808
▁proxim	-11809
▁sculpt	-11810
▁strain	-11811
▁timber	-11812
▁whites	-11813
etheless	-11814
▁copying	-11815
▁episode	-11816
▁insight	-11817
▁perfume	-11818
▁rehears	-11819
▁ruining	-11820
▁sunrise	-11821
▁syringe	-11822
▁tremble	-11823
▁vincent	-11824
▁attended	-11825
▁blinking	-11826
▁circuits	-11827
▁commonly	-11828
▁diameter	-11829
▁envelope	-11830
▁failures	-11831
▁harmless	-11832
▁reverend	-11833
▁shifting	-11834
▁suppress	-11835
▁swinging	-11836
▁toxicity	-11837
▁treacher	-11838
▁trusting	-11839
▁wardrobe	-11840
▁contested	-11841
▁exclusive	-11842
▁judgement	-11843
▁strongest	-11844
▁apartments	-11845
▁completion	-11846
▁conviction	-11847
▁detectives	-11848
▁publishing	-11849
▁tournament	-11850
▁veterinary	-11851
▁nonetheless	-11852
▁transmitted	-11853
▁interference	-11854
▁investigated	-11855
▁straightened	-11856
▁characteristic	-11857
cp	-11858
oz	-11859
tu	-11860
isa	-11861
isd	-11862
isp	-11863
mel	-11864
new	-11865
oup	-11866
usa	-11867
▁47	-11868
▁aj	-11869
▁ww	-11870
▁za	-11871
chet	-11872
essa	-11873
igen	-11874
ilda	-11875
ilia	-11876
quin	-11877
than	-11878
urai	-11879
▁era	-11880
▁fry	-11881
▁kan	-11882
▁nov	-11883
esthe	-11884
green	-11885
▁aval	-11886
▁bing	-11887
▁furi	-11888
▁jedi	-11889
▁ruby	-11890
▁shep	-11891
▁spra	-11892
▁tram	-11893
▁util	-11894
▁wend	-11895
▁wren	-11896
makers	-11897
▁brass	-11898
▁draws	-11899
▁frodo	-11900
▁fuels	-11901
▁infer	-11902
▁rigid	-11903
▁risen	-11904
▁ropes	-11905
▁zones	-11906
ickered	-11907
▁awards	-11908
▁chicks	-11909
▁fixing	-11910
▁grades	-11911
▁insurg	-11912
▁liable	-11913
▁loomed	-11914
▁module	-11915
▁patron	-11916
▁petrol	-11917
▁pursue	-11918
▁ranger	-11919
▁thirst	-11920
▁unreal	-11921
▁arguing	-11922
▁brushed	-11923
▁drained	-11924
▁fulfill	-11925
▁impulse	-11926
▁kennedy	-11927
▁pursued	-11928
▁skilled	-11929
▁vicious	-11930
▁ambition	-11931
▁consumed	-11932
▁darkened	-11933
▁emphasis	-11934
▁margaret	-11935
▁relieved	-11936
▁squadron	-11937
▁starters	-11938
▁tactical	-11939
▁unstable	-11940
▁urgently	-11941
▁amazingly	-11942
▁exceeding	-11943
▁furiously	-11944
▁reasoning	-11945
▁tightened	-11946
▁assumption	-11947
▁disability	-11948
▁satellites	-11949
▁supposedly	-11950
▁wilderness	-11951
▁publication	-11952
▁championship	-11953
▁experimental	-11954
ape	-11955
del	-11956
iki	-11957
ota	-11958
rag	-11959
yev	-11960
▁43	-11961
▁72	-11962
▁85	-11963
▁kw	-11964
bast	-11965
ichi	-11966
nish	-11967
oise	-11968
pple	-11969
▁cet	-11970
▁jay	-11971
▁sis	-11972
▁tib	-11973
cedes	-11974
icity	-11975
inent	-11976
itate	-11977
lette	-11978
lined	-11979
nings	-11980
▁2014	-11981
▁bren	-11982
▁cafe	-11983
▁cott	-11984
▁dall	-11985
▁fork	-11986
▁heir	-11987
▁joey	-11988
▁jude	-11989
▁mold	-11990
▁nato	-11991
▁nipp	-11992
▁pand	-11993
▁sham	-11994
▁sync	-11995
▁whim	-11996
ructed	-11997
screen	-11998
soever	-11999
▁borne	-12000
▁nephe	-12001
▁piled	-12002
▁resur	-12003
▁utter	-12004
▁alarms	-12005
▁amanda	-12006
▁angela	-12007
▁blamed	-12008
▁convoy	-12009
▁cracks	-12010
▁diplom	-12011
▁drying	-12012
▁fruits	-12013
▁gossip	-12014
▁kindly	-12015
▁locker	-12016
▁parach	-12017
▁pledge	-12018
▁popped	-12019
▁raises	-12020
▁resent	-12021
▁voyage	-12022
▁whilst	-12023
ographic	-12024
▁abdomen	-12025
▁distort	-12026
▁goddess	-12027
▁lending	-12028
▁publish	-12029
▁reduces	-12030
▁samurai	-12031
▁smarter	-12032
▁supreme	-12033
▁unaware	-12034
▁accusing	-12035
▁blankets	-12036
▁blocking	-12037
▁nickname	-12038
▁shameful	-12039
▁stripped	-12040
▁updating	-12041
▁abduction	-12042
▁competing	-12043
▁diversity	-12044
▁exchanged	-12045
▁impatient	-12046
▁institute	-12047
▁subsidies	-12048
▁comparable	-12049
▁infectious	-12050
▁whatsoever	-12051
▁representation	-12052
▁specifications	-12053
nn	-12054
bin	-12055
wes	-12056
bear	-12057
ista	-12058
nine	-12059
omer	-12060
opic	-12061
osph	-12062
rust	-12063
▁bam	-12064
▁kas	-12065
▁raj	-12066
▁spa	-12067
atern	-12068
▁anom	-12069
▁fran	-12070
▁hank	-12071
▁mend	-12072
▁nurs	-12073
▁stit	-12074
▁trev	-12075
▁unav	-12076
govern	-12077
icable	-12078
▁bites	-12079
▁demol	-12080
▁flint	-12081
▁login	-12082
▁pairs	-12083
▁peril	-12084
▁ranks	-12085
▁sizes	-12086
▁swiss	-12087
▁tenth	-12088
osystem	-12089
ressing	-12090
ryption	-12091
▁assure	-12092
▁behold	-12093
▁cavern	-12094
▁circus	-12095
▁copied	-12096
▁impose	-12097
▁ironic	-12098
▁jurisd	-12099
▁lunged	-12100
▁marble	-12101
▁matern	-12102
▁phrase	-12103
▁portal	-12104
▁puppet	-12105
▁ragged	-12106
▁refund	-12107
▁salmon	-12108
▁soaked	-12109
▁sucked	-12110
▁tennis	-12111
▁warden	-12112
ughtered	-12113
▁archive	-12114
▁barrels	-12115
▁beliefs	-12116
▁ceremon	-12117
▁kidneys	-12118
▁legends	-12119
▁shannow	-12120
▁showers	-12121
▁viewing	-12122
president	-12123
▁academic	-12124
▁canadian	-12125
▁downward	-12126
▁epidemic	-12127
▁hopeless	-12128
▁mercedes	-12129
▁notebook	-12130
▁overseas	-12131
▁salaries	-12132
▁summoned	-12133
▁appalling	-12134
▁decreased	-12135
▁encrypted	-12136
▁marvelous	-12137
▁poisoning	-12138
▁purchases	-12139
▁unusually	-12140
▁celebrated	-12141
▁commanders	-12142
▁compromise	-12143
▁corrective	-12144
▁discipline	-12145
▁repeatedly	-12146
▁securities	-12147
▁supervisor	-12148
▁distinction	-12149
▁fingernails	-12150
▁humiliating	-12151
▁precautions	-12152
▁slaughtered	-12153
▁availability	-12154
▁congratulate	-12155
▁authentication	-12156
ez	-12157
eer	-12158
gir	-12159
hmm	-12160
hyd	-12161
oky	-12162
▁49	-12163
erie	-12164
iley	-12165
ique	-12166
okin	-12167
reet	-12168
rose	-12169
▁700	-12170
▁gna	-12171
▁pav	-12172
borne	-12173
cript	-12174
eries	-12175
gging	-12176
▁alia	-12177
▁bats	-12178
▁dian	-12179
▁fade	-12180
▁fits	-12181
▁linc	-12182
▁monk	-12183
▁pets	-12184
▁pies	-12185
▁sain	-12186
▁tink	-12187
▁tire	-12188
ledore	-12189
lights	-12190
▁cache	-12191
▁flush	-12192
▁goose	-12193
▁hedge	-12194
▁repro	-12195
▁sheik	-12196
▁spont	-12197
▁troop	-12198
▁voted	-12199
▁wheat	-12200
agnetic	-12201
itarian	-12202
itative	-12203
▁admire	-12204
▁analog	-12205
▁canvas	-12206
▁cetera	-12207
▁columb	-12208
▁eighth	-12209
▁expose	-12210
▁funded	-12211
▁julian	-12212
▁laurie	-12213
▁layers	-12214
▁layout	-12215
▁legacy	-12216
▁lounge	-12217
▁peered	-12218
▁plains	-12219
▁smokes	-12220
▁speeds	-12221
daughter	-12222
▁actress	-12223
▁bounced	-12224
▁corrupt	-12225
▁cunning	-12226
▁deposit	-12227
▁desktop	-12228
▁dismant	-12229
▁expense	-12230
▁flooded	-12231
▁harmful	-12232
▁opposed	-12233
▁permits	-12234
▁poultry	-12235
▁terrain	-12236
▁earliest	-12237
▁homeland	-12238
▁seizures	-12239
▁virginia	-12240
▁wreckage	-12241
ologically	-12242
▁abdominal	-12243
▁acknowled	-12244
▁alcoholic	-12245
▁ambitious	-12246
▁counterfe	-12247
▁dizziness	-12248
▁flickered	-12249
▁murderous	-12250
▁passanger	-12251
▁directives	-12252
▁motionless	-12253
▁sacrificed	-12254
▁observation	-12255
▁residential	-12256
▁transformed	-12257
▁partnerships	-12258
▁unexpectedly	-12259
▁inconvenience	-12260
lc	-12261
mi	-12262
gel	-12263
pin	-12264
abel	-12265
adel	-12266
anas	-12267
cery	-12268
dles	-12269
enza	-12270
geon	-12271
hart	-12272
hill	-12273
hoea	-12274
hydr	-12275
lane	-12276
mers	-12277
oner	-12278
rane	-12279
▁2.1	-12280
▁ein	-12281
▁kol	-12282
▁pes	-12283
being	-12284
eches	-12285
eding	-12286
erals	-12287
etary	-12288
jamas	-12289
pound	-12290
ucker	-12291
▁ally	-12292
▁chen	-12293
▁crun	-12294
▁crus	-12295
▁kurt	-12296
▁maur	-12297
▁prod	-12298
▁radi	-12299
▁sung	-12300
▁wept	-12301
▁wils	-12302
▁appla	-12303
▁baker	-12304
▁bould	-12305
▁claus	-12306
▁clung	-12307
▁drill	-12308
▁druss	-12309
▁ethan	-12310
▁glist	-12311
▁neuro	-12312
▁polly	-12313
▁porch	-12314
▁slipp	-12315
▁sorce	-12316
▁theme	-12317
▁titan	-12318
▁valve	-12319
aculous	-12320
amiliar	-12321
tically	-12322
▁anchor	-12323
▁argued	-12324
▁auntie	-12325
▁blouse	-12326
▁cleans	-12327
▁easter	-12328
▁engulf	-12329
▁fremen	-12330
▁jewell	-12331
▁reserv	-12332
▁sheath	-12333
▁bubbles	-12334
▁cavalry	-12335
▁crooked	-12336
▁doubted	-12337
▁gardens	-12338
▁inmates	-12339
▁insulin	-12340
▁jackass	-12341
▁klingon	-12342
▁roasted	-12343
▁sailing	-12344
▁satisfy	-12345
▁vaguely	-12346
▁volcano	-12347
▁warfare	-12348
▁weeping	-12349
▁worship	-12350
▁confirms	-12351
▁decisive	-12352
▁deleting	-12353
▁exceeded	-12354
▁keyboard	-12355
▁killings	-12356
▁regiment	-12357
▁shocking	-12358
▁solitary	-12359
▁spinning	-12360
▁stinking	-12361
▁variable	-12362
▁versions	-12363
▁evaluated	-12364
▁messenger	-12365
▁sanctuary	-12366
▁willingly	-12367
▁microphone	-12368
▁safeguards	-12369
▁accusations	-12370
▁businessman	-12371
▁definitions	-12372
▁introducing	-12373
▁technically	-12374
▁thanksgiving	-12375
▁supplementary	-12376
27	-12377
apy	-12378
raz	-12379
rod	-12380
umi	-12381
▁gm	-12382
▁ss	-12383
aron	-12384
food	-12385
ilib	-12386
paid	-12387
prof	-12388
tell	-12389
▁dal	-12390
▁ltd	-12391
▁sel	-12392
▁tad	-12393
▁tay	-12394
▁ugh	-12395
cakes	-12396
rayar	-12397
shore	-12398
sight	-12399
▁adol	-12400
▁coco	-12401
▁cudd	-12402
▁diff	-12403
▁dome	-12404
▁guer	-12405
▁haze	-12406
▁hudd	-12407
▁medi	-12408
▁nazi	-12409
▁offs	-12410
▁soda	-12411
▁sped	-12412
▁sums	-12413
itness	-12414
mental	-12415
ulsive	-12416
▁choir	-12417
▁choke	-12418
▁cigar	-12419
▁crypt	-12420
▁dated	-12421
▁escal	-12422
▁fragr	-12423
▁groom	-12424
▁haven	-12425
▁ranch	-12426
▁ricky	-12427
▁vivid	-12428
usement	-12429
▁artery	-12430
▁closes	-12431
▁crowds	-12432
▁enters	-12433
▁fading	-12434
▁hiring	-12435
▁inland	-12436
▁pierce	-12437
▁ration	-12438
▁scales	-12439
▁shrink	-12440
▁solely	-12441
▁static	-12442
▁trader	-12443
economic	-12444
▁balcony	-12445
▁bandits	-12446
▁burdens	-12447
▁butcher	-12448
▁contrac	-12449
▁enhance	-12450
▁filters	-12451
▁flavour	-12452
▁fratern	-12453
▁gradual	-12454
▁gunshot	-12455
▁holland	-12456
▁lesbian	-12457
▁locking	-12458
▁noodles	-12459
▁pudding	-12460
▁rotting	-12461
▁sinking	-12462
▁stephen	-12463
▁upright	-12464
▁balanced	-12465
▁barrayar	-12466
▁expanded	-12467
▁finances	-12468
▁impossib	-12469
▁miracles	-12470
▁pounding	-12471
▁skeleton	-12472
▁squeezed	-12473
▁handcuffs	-12474
▁inherited	-12475
▁launching	-12476
▁transfers	-12477
▁twitching	-12478
▁dumbledore	-12479
▁expedition	-12480
▁assumptions	-12481
▁constitutes	-12482
▁acceleration	-12483
▁broadcasting	-12484
▁satisfactory	-12485
▁confidentiality	-12486
aku	-12487
pol	-12488
psy	-12489
vol	-12490
▁46	-12491
▁wu	-12492
atha	-12493
bows	-12494
grad	-12495
inus	-12496
▁aah	-12497
▁eva	-12498
▁hiv	-12499
▁jas	-12500
▁sud	-12501
backs	-12502
blood	-12503
count	-12504
every	-12505
▁ampl	-12506
▁clam	-12507
▁dope	-12508
▁ford	-12509
▁frog	-12510
▁grun	-12511
▁hipp	-12512
▁hygi	-12513
▁loop	-12514
▁mong	-12515
▁obed	-12516
▁paws	-12517
▁sire	-12518
▁sull	-12519
▁vass	-12520
▁vile	-12521
▁wink	-12522
▁wrap	-12523
erving	-12524
ometer	-12525
produc	-12526
▁basil	-12527
▁bened	-12528
▁blair	-12529
▁bleak	-12530
▁broom	-12531
▁crick	-12532
▁crude	-12533
▁cyber	-12534
▁divid	-12535
▁jumps	-12536
▁linda	-12537
▁miami	-12538
▁pilgr	-12539
▁scand	-12540
▁vegas	-12541
▁viral	-12542
covered	-12543
vestock	-12544
▁append	-12545
▁contag	-12546
▁daring	-12547
▁elabor	-12548
▁holder	-12549
▁jersey	-12550
▁muslim	-12551
▁neatly	-12552
▁phosph	-12553
▁prizes	-12554
▁sailor	-12555
▁shaped	-12556
▁shouts	-12557
▁smelly	-12558
▁spends	-12559
▁sphere	-12560
▁sticky	-12561
▁whisky	-12562
▁belgium	-12563
▁centers	-12564
▁choking	-12565
▁combine	-12566
▁conserv	-12567
▁consume	-12568
▁embrace	-12569
▁howling	-12570
▁knights	-12571
▁militia	-12572
▁platoon	-12573
▁relieve	-12574
▁turkish	-12575
▁boarding	-12576
▁coughing	-12577
▁fragment	-12578
▁magician	-12579
▁produces	-12580
▁scanning	-12581
▁thrilled	-12582
▁weekends	-12583
▁accepting	-12584
▁battalion	-12585
▁campaigns	-12586
▁communist	-12587
▁confusing	-12588
▁dominated	-12589
▁generator	-12590
▁inclusion	-12591
▁innocence	-12592
▁orchestra	-12593
▁specifies	-12594
▁teenagers	-12595
▁acceptance	-12596
▁adequately	-12597
▁delegation	-12598
▁impairment	-12599
▁indicating	-12600
▁membership	-12601
▁persistent	-12602
▁thankfully	-12603
▁thereafter	-12604
▁unfamiliar	-12605
▁cooperating	-12606
▁efficiently	-12607
▁transported	-12608
▁supernatural	-12609
▁transformation	-12610
45	-12611
hl	-12612
abs	-12613
iah	-12614
pow	-12615
yan	-12616
▁08	-12617
▁ix	-12618
acer	-12619
brid	-12620
heim	-12621
▁195	-12622
▁fug	-12623
▁gul	-12624
▁iso	-12625
▁nam	-12626
▁pep	-12627
▁sip	-12628
adium	-12629
build	-12630
▁1996	-12631
▁diso	-12632
▁dysp	-12633
▁gwen	-12634
▁hann	-12635
▁limp	-12636
▁omin	-12637
▁subd	-12638
▁trop	-12639
▁twil	-12640
▁zeal	-12641
commun	-12642
ferent	-12643
minute	-12644
umping	-12645
vation	-12646
worthy	-12647
▁acute	-12648
▁bever	-12649
▁bowed	-12650
▁gamma	-12651
▁humid	-12652
▁molly	-12653
▁phill	-12654
▁seeks	-12655
▁spoon	-12656
▁trump	-12657
▁wakes	-12658
general	-12659
▁arched	-12660
▁attent	-12661
▁beware	-12662
▁douche	-12663
▁garlic	-12664
▁greasy	-12665
▁holmes	-12666
▁hooker	-12667
▁indict	-12668
▁lenses	-12669
▁lowest	-12670
▁marcus	-12671
▁metals	-12672
▁nephew	-12673
▁neural	-12674
▁recipe	-12675
▁shrill	-12676
▁sorted	-12677
▁sparks	-12678
▁spokes	-12679
▁sweden	-12680
▁wilson	-12681
▁advisor	-12682
▁blazing	-12683
▁boiling	-12684
▁cameron	-12685
▁compart	-12686
▁derived	-12687
▁desired	-12688
▁disagre	-12689
▁fleeing	-12690
▁groaned	-12691
▁optimal	-12692
▁reimbur	-12693
▁rushing	-12694
▁tenders	-12695
▁wizards	-12696
efficient	-12697
▁attacker	-12698
▁battered	-12699
▁catholic	-12700
▁defenses	-12701
▁detained	-12702
▁detonate	-12703
▁disagree	-12704
▁interven	-12705
▁simplify	-12706
▁spelling	-12707
▁twilight	-12708
▁allegedly	-12709
▁assisting	-12710
▁civilized	-12711
▁comparing	-12712
▁exercises	-12713
▁livestock	-12714
▁northeast	-12715
▁penetrate	-12716
▁definitive	-12717
▁deliberate	-12718
▁homosexual	-12719
▁incentives	-12720
▁indicative	-12721
▁miraculous	-12722
▁penetrated	-12723
▁programmed	-12724
▁compromised	-12725
▁devastating	-12726
▁specialised	-12727
▁{	-12728
opa	-12729
▁5-	-12730
agan	-12731
cled	-12732
from	-12733
held	-12734
ibal	-12735
lims	-12736
opus	-12737
orso	-12738
oter	-12739
oths	-12740
post	-12741
sian	-12742
thir	-12743
type	-12744
▁gly	-12745
▁gps	-12746
▁hex	-12747
▁jug	-12748
▁tul	-12749
▁woo	-12750
icacy	-12751
raged	-12752
ropol	-12753
style	-12754
treat	-12755
▁emma	-12756
▁flip	-12757
▁hail	-12758
▁lanc	-12759
▁sket	-12760
▁vine	-12761
▁wick	-12762
ecraft	-12763
estyle	-12764
illery	-12765
orient	-12766
porter	-12767
stones	-12768
▁anten	-12769
▁brook	-12770
▁chess	-12771
▁drums	-12772
▁embro	-12773
▁meets	-12774
▁membr	-12775
▁monop	-12776
▁mosqu	-12777
▁noisy	-12778
▁notor	-12779
▁pupil	-12780
▁ruler	-12781
▁seize	-12782
▁spice	-12783
▁usern	-12784
berries	-12785
vereign	-12786
▁advers	-12787
▁ankles	-12788
▁bennet	-12789
▁brands	-12790
▁covert	-12791
▁denial	-12792
▁fossil	-12793
▁foster	-12794
▁gamble	-12795
▁hockey	-12796
▁kaelin	-12797
▁kalten	-12798
▁midday	-12799
▁ornate	-12800
▁packet	-12801
▁stinks	-12802
▁transf	-12803
▁turtle	-12804
▁unchan	-12805
▁uneasy	-12806
▁vector	-12807
▁viktor	-12808
▁winced	-12809
lessness	-12810
▁antique	-12811
▁chopped	-12812
▁cleaner	-12813
▁designs	-12814
▁erupted	-12815
▁ethical	-12816
▁gasping	-12817
▁graphic	-12818
▁holders	-12819
▁lacking	-12820
▁leaking	-12821
▁muffled	-12822
▁muslims	-12823
▁payable	-12824
▁prosper	-12825
▁reservo	-12826
▁rewards	-12827
▁thermal	-12828
iciencies	-12829
▁adjacent	-12830
▁apprehen	-12831
▁crystals	-12832
▁formally	-12833
▁galactic	-12834
▁guarding	-12835
▁hormones	-12836
▁intraven	-12837
▁investor	-12838
▁pakistan	-12839
▁pipeline	-12840
▁roommate	-12841
▁steering	-12842
▁twitched	-12843
▁wireless	-12844
▁amusement	-12845
▁cancelled	-12846
▁christine	-12847
▁doughnuts	-12848
▁parachute	-12849
▁projected	-12850
▁repeating	-12851
▁sovereign	-12852
▁spaceship	-12853
▁stupidity	-12854
▁tolerance	-12855
▁adventures	-12856
▁philosophy	-12857
▁frustration	-12858
▁netherlands	-12859
▁conditioning	-12860
▁reservations	-12861
▁disappointing	-12862
▁simplification	-12863
16	-12864
70	-12865
uj	-12866
▁#	-12867
dog	-12868
hit	-12869
ois	-12870
oko	-12871
oyd	-12872
uda	-12873
zel	-12874
▁03	-12875
▁05	-12876
▁2-	-12877
▁pm	-12878
etes	-12879
ffer	-12880
gard	-12881
half	-12882
hero	-12883
inis	-12884
iors	-12885
isha	-12886
ogly	-12887
omit	-12888
ride	-12889
tech	-12890
▁hod	-12891
▁jol	-12892
▁lil	-12893
▁stu	-12894
▁www	-12895
-2010	-12896
aling	-12897
ensus	-12898
iries	-12899
month	-12900
oting	-12901
plete	-12902
▁berg	-12903
▁bolt	-12904
▁bout	-12905
▁clum	-12906
▁mute	-12907
▁nich	-12908
▁owes	-12909
▁redd	-12910
▁spun	-12911
▁thum	-12912
minent	-12913
▁antid	-12914
▁chang	-12915
▁chron	-12916
▁cooks	-12917
▁donor	-12918
▁exams	-12919
▁fangs	-12920
▁filen	-12921
▁float	-12922
▁insol	-12923
▁krist	-12924
▁shelf	-12925
▁sober	-12926
▁stere	-12927
▁stove	-12928
▁usage	-12929
▁ambush	-12930
▁barric	-12931
▁bronze	-12932
▁bubble	-12933
▁burial	-12934
▁cherry	-12935
▁dammit	-12936
▁erased	-12937
▁harris	-12938
▁louder	-12939
▁recept	-12940
▁rubble	-12941
▁sniper	-12942
▁sweaty	-12943
▁tariff	-12944
ondition	-12945
▁adviser	-12946
▁angrily	-12947
▁appoint	-12948
▁banking	-12949
▁clearer	-12950
▁deficit	-12951
▁expects	-12952
▁glucose	-12953
▁honesty	-12954
▁lincoln	-12955
▁listens	-12956
▁plunged	-12957
▁pounded	-12958
▁puzzled	-12959
▁reminds	-12960
▁serpent	-12961
▁sucking	-12962
▁swedish	-12963
▁threads	-12964
▁tourism	-12965
▁borrowed	-12966
▁clutched	-12967
▁declined	-12968
▁defended	-12969
▁efficacy	-12970
▁electrom	-12971
▁escaping	-12972
▁evacuate	-12973
▁evaluate	-12974
▁fracture	-12975
▁guardian	-12976
▁imminent	-12977
▁pastures	-12978
▁scarcely	-12979
▁shivered	-12980
▁underway	-12981
▁addiction	-12982
▁airplanes	-12983
▁alternate	-12984
▁discarded	-12985
▁ecosystem	-12986
▁fishermen	-12987
▁halloween	-12988
▁honorable	-12989
▁imagining	-12990
▁interconn	-12991
▁necessity	-12992
▁parameter	-12993
▁prospects	-12994
▁sentenced	-12995
▁sentences	-12996
▁travelers	-12997
▁accomplish	-12998
▁compliment	-12999
▁delightful	-13000
▁greenhouse	-13001
▁humiliated	-13002
▁installing	-13003
▁irrelevant	-13004
▁procedural	-13005
▁contracting	-13006
▁psychiatric	-13007
▁conservation	-13008
▁economically	-13009
▁exceptionally	-13010
▁installations	-13011
,4	-13012
,6	-13013
esy	-13014
eva	-13015
olo	-13016
rat	-13017
tim	-13018
▁3-	-13019
▁58	-13020
▁sv	-13021
acet	-13022
ashi	-13023
bout	-13024
bury	-13025
comp	-13026
gate	-13027
imen	-13028
ithm	-13029
ovic	-13030
▁3.1	-13031
▁esp	-13032
▁gag	-13033
▁gry	-13034
▁hoo	-13035
▁kem	-13036
▁lum	-13037
▁mul	-13038
▁nim	-13039
▁vet	-13040
.1992	-13041
check	-13042
edema	-13043
hesis	-13044
names	-13045
▁adul	-13046
▁beep	-13047
▁cogn	-13048
▁cush	-13049
▁diox	-13050
▁dive	-13051
▁fres	-13052
▁kent	-13053
▁lent	-13054
▁verd	-13055
▁whip	-13056
coated	-13057
course	-13058
garian	-13059
▁arist	-13060
▁calib	-13061
▁indif	-13062
▁laura	-13063
▁meter	-13064
▁ofthe	-13065
▁sting	-13066
▁sulph	-13067
▁swamp	-13068
▁woken	-13069
▁francs	-13070
▁kisses	-13071
▁ladder	-13072
▁openly	-13073
▁revers	-13074
▁ruling	-13075
▁sliced	-13076
▁slopes	-13077
▁sprink	-13078
▁subway	-13079
▁thromb	-13080
▁unbear	-13081
▁unexpl	-13082
▁wander	-13083
position	-13084
▁acquire	-13085
▁annoyed	-13086
▁browser	-13087
▁chronic	-13088
▁crosses	-13089
▁equilib	-13090
▁fearful	-13091
▁grenade	-13092
▁licking	-13093
▁locally	-13094
▁scaring	-13095
▁skipper	-13096
▁tongues	-13097
▁winters	-13098
antically	-13099
▁advances	-13100
▁backyard	-13101
▁childish	-13102
▁insulted	-13103
▁metallic	-13104
▁metropol	-13105
▁motioned	-13106
▁particle	-13107
▁rotation	-13108
▁scotland	-13109
▁socially	-13110
compliance	-13111
imensional	-13112
▁clutching	-13113
▁discharge	-13114
▁duplicate	-13115
▁factories	-13116
▁fertility	-13117
▁intercept	-13118
▁lifestyle	-13119
▁predicted	-13120
▁prolonged	-13121
▁societies	-13122
▁timetable	-13123
▁accustomed	-13124
▁precaution	-13125
▁variations	-13126
▁departments	-13127
▁desperation	-13128
▁distinguish	-13129
▁interaction	-13130
▁provisional	-13131
▁accompanying	-13132
▁declarations	-13133
33	-13134
dor	-13135
fat	-13136
igo	-13137
llo	-13138
▁02	-13139
dled	-13140
grav	-13141
link	-13142
mort	-13143
stop	-13144
uity	-13145
▁bry	-13146
▁tol	-13147
elled	-13148
illac	-13149
inton	-13150
raine	-13151
umped	-13152
▁claw	-13153
▁eyew	-13154
▁hart	-13155
▁heel	-13156
▁hing	-13157
▁hips	-13158
▁jere	-13159
▁kirk	-13160
▁seam	-13161
▁visa	-13162
▁wors	-13163
irable	-13164
legged	-13165
shirts	-13166
▁aging	-13167
▁agnes	-13168
▁coral	-13169
▁coven	-13170
▁darcy	-13171
▁dudes	-13172
▁elite	-13173
▁froze	-13174
▁incom	-13175
▁jelly	-13176
▁oscar	-13177
▁phant	-13178
▁weeds	-13179
▁wells	-13180
ounding	-13181
▁boards	-13182
▁casino	-13183
▁colomb	-13184
▁drawer	-13185
▁facial	-13186
▁filmed	-13187
▁grapes	-13188
▁gravel	-13189
▁guided	-13190
▁harmed	-13191
▁heated	-13192
▁hugged	-13193
▁insign	-13194
▁laptop	-13195
▁louise	-13196
▁palest	-13197
▁poorly	-13198
▁propag	-13199
▁reflex	-13200
▁slower	-13201
minister	-13202
▁allergy	-13203
▁budgets	-13204
▁cluster	-13205
▁colours	-13206
▁diagram	-13207
▁fiction	-13208
▁gunfire	-13209
▁margins	-13210
▁mineral	-13211
▁nodding	-13212
▁roaring	-13213
▁upgrade	-13214
▁bouncing	-13215
▁bursting	-13216
▁curtains	-13217
▁dangling	-13218
▁dazzling	-13219
▁distaste	-13220
▁dramatic	-13221
▁grenades	-13222
▁grinning	-13223
▁initiate	-13224
▁proteins	-13225
▁sausages	-13226
▁describes	-13227
▁francisco	-13228
▁incidents	-13229
▁jewellery	-13230
▁mushrooms	-13231
▁pretended	-13232
▁recipient	-13233
▁regretted	-13234
▁travelled	-13235
dimensional	-13236
▁cautiously	-13237
▁disappears	-13238
▁objections	-13239
▁quarantine	-13240
▁spacecraft	-13241
▁suppressed	-13242
▁undergoing	-13243
▁vibrations	-13244
▁coordinated	-13245
▁emergencies	-13246
▁equilibrium	-13247
▁instruction	-13248
▁territories	-13249
▁breakthrough	-13250
▁humanitarian	-13251
▁manufactured	-13252
▁strengthened	-13253
▁instinctively	-13254
zu	-13255
▁=	-13256
aby	-13257
bat	-13258
fly	-13259
fty	-13260
pre	-13261
rik	-13262
cake	-13263
echn	-13264
opha	-13265
tage	-13266
user	-13267
vous	-13268
▁bib	-13269
▁gus	-13270
▁jut	-13271
▁mak	-13272
▁nob	-13273
▁phe	-13274
▁pse	-13275
▁sci	-13276
▁umb	-13277
balls	-13278
comed	-13279
itage	-13280
pring	-13281
speed	-13282
▁beta	-13283
▁brat	-13284
▁cope	-13285
▁dren	-13286
▁juan	-13287
▁lure	-13288
▁pawn	-13289
▁prow	-13290
▁tslc	-13291
▁unle	-13292
▁vale	-13293
▁womb	-13294
▁yang	-13295
enders	-13296
holder	-13297
iliary	-13298
monary	-13299
resist	-13300
▁adore	-13301
▁bloom	-13302
▁glove	-13303
▁juven	-13304
▁lords	-13305
▁phosp	-13306
▁pyram	-13307
▁rebec	-13308
▁regen	-13309
▁remed	-13310
▁reper	-13311
▁rolls	-13312
▁slice	-13313
▁sofia	-13314
▁vomit	-13315
▁avenge	-13316
▁banana	-13317
▁burton	-13318
▁dennis	-13319
▁diesel	-13320
▁dosing	-13321
▁festiv	-13322
▁forens	-13323
▁gasped	-13324
▁hoarse	-13325
▁justin	-13326
▁locals	-13327
▁methyl	-13328
▁microw	-13329
▁publis	-13330
▁reconc	-13331
▁shitty	-13332
▁shoots	-13333
▁triump	-13334
▁tucked	-13335
iversity	-13336
▁angeles	-13337
▁caravan	-13338
▁combust	-13339
▁cousins	-13340
▁diverse	-13341
▁enlarge	-13342
▁fellows	-13343
▁glimpse	-13344
▁invaded	-13345
▁preview	-13346
▁pricing	-13347
▁relates	-13348
▁renewed	-13349
▁servers	-13350
▁surfing	-13351
▁utility	-13352
▁widened	-13353
▁contempl	-13354
▁counsell	-13355
▁exposing	-13356
▁firearms	-13357
▁granting	-13358
▁intimate	-13359
▁organism	-13360
▁username	-13361
▁wandered	-13362
▁amazement	-13363
▁blackness	-13364
▁chemistry	-13365
▁collision	-13366
▁distorted	-13367
▁exclusion	-13368
▁integrity	-13369
▁intensive	-13370
▁kilograms	-13371
▁obtaining	-13372
▁predators	-13373
▁proximity	-13374
▁qualities	-13375
▁christians	-13376
▁correction	-13377
▁descending	-13378
▁eyewitness	-13379
▁horrifying	-13380
▁identities	-13381
▁substitute	-13382
▁systematic	-13383
▁undertaken	-13384
▁afghanistan	-13385
▁disturbance	-13386
▁populations	-13387
▁sentimental	-13388
▁continuously	-13389
▁entertaining	-13390
▁subconscious	-13391
▁grandchildren	-13392
bc	-13393
ih	-13394
▁}	-13395
hma	-13396
hua	-13397
hun	-13398
jan	-13399
jor	-13400
oda	-13401
pic	-13402
sts	-13403
tie	-13404
uer	-13405
▁56	-13406
agin	-13407
ando	-13408
arsa	-13409
dest	-13410
hire	-13411
icia	-13412
week	-13413
wild	-13414
▁5.1	-13415
▁aph	-13416
▁aur	-13417
▁cds	-13418
▁een	-13419
▁ion	-13420
▁lup	-13421
▁moz	-13422
annah	-13423
archy	-13424
artan	-13425
aults	-13426
letal	-13427
matic	-13428
orris	-13429
▁atop	-13430
▁bapt	-13431
▁ende	-13432
▁fame	-13433
▁feds	-13434
▁gaps	-13435
▁idol	-13436
▁unhe	-13437
abouts	-13438
looked	-13439
ogenic	-13440
school	-13441
▁monks	-13442
▁mourn	-13443
▁ninet	-13444
▁quart	-13445
▁shave	-13446
▁spill	-13447
▁spraw	-13448
▁sushi	-13449
▁terry	-13450
▁vodka	-13451
ifiable	-13452
▁belwar	-13453
▁choked	-13454
▁endure	-13455
▁favors	-13456
▁fluids	-13457
▁framed	-13458
▁futile	-13459
▁grants	-13460
▁graves	-13461
▁grease	-13462
▁hambur	-13463
▁hereby	-13464
▁hugely	-13465
▁martha	-13466
▁matthe	-13467
▁monica	-13468
▁monstr	-13469
▁parted	-13470
▁retain	-13471
▁runway	-13472
▁stench	-13473
restrial	-13474
▁blurred	-13475
▁chooses	-13476
▁confuse	-13477
▁cooling	-13478
▁curtain	-13479
▁descent	-13480
▁endured	-13481
▁exceeds	-13482
▁harbour	-13483
▁hygiene	-13484
▁lighter	-13485
▁melting	-13486
▁notices	-13487
▁obliged	-13488
▁outward	-13489
▁prisons	-13490
▁rumbled	-13491
▁shipped	-13492
▁stanley	-13493
▁subsidy	-13494
▁suffice	-13495
▁urgency	-13496
▁aviation	-13497
▁brussels	-13498
▁cadillac	-13499
▁commence	-13500
▁crossbow	-13501
▁drifting	-13502
▁extermin	-13503
▁holdings	-13504
▁jealousy	-13505
▁merchand	-13506
▁mosquito	-13507
▁paranoid	-13508
▁preacher	-13509
▁prophecy	-13510
▁smelling	-13511
▁soothing	-13512
▁teenager	-13513
▁welcomed	-13514
▁coastline	-13515
▁criticism	-13516
▁depressed	-13517
▁exporting	-13518
▁illnesses	-13519
▁privilege	-13520
▁pulmonary	-13521
▁selecting	-13522
▁starboard	-13523
▁competence	-13524
▁discomfort	-13525
▁encryption	-13526
▁temptation	-13527
▁beautifully	-13528
▁consistency	-13529
▁distinctive	-13530
▁photography	-13531
▁sensitivity	-13532
▁measurements	-13533
▁transitional	-13534
▁electromagnetic	-13535
15	-13536
17	-13537
36	-13538
44	-13539
cz	-13540
ahl	-13541
bes	-13542
lif	-13543
ovo	-13544
▁ay	-13545
▁kh	-13546
anim	-13547
cers	-13548
date	-13549
ican	-13550
llar	-13551
mart	-13552
nest	-13553
pets	-13554
phal	-13555
renc	-13556
urry	-13557
xton	-13558
▁1.1	-13559
▁10-	-13560
▁120	-13561
▁aft	-13562
▁jee	-13563
▁tus	-13564
▁usa	-13565
ersed	-13566
rator	-13567
▁biot	-13568
▁cycl	-13569
▁erad	-13570
▁harv	-13571
▁penn	-13572
▁swap	-13573
▁unsc	-13574
iantly	-13575
itably	-13576
tinari	-13577
▁aisle	-13578
▁cured	-13579
▁dimly	-13580
▁embed	-13581
▁fiery	-13582
▁fries	-13583
▁grill	-13584
▁guild	-13585
▁irony	-13586
▁lucas	-13587
▁nucle	-13588
▁pains	-13589
▁pseud	-13590
▁spani	-13591
▁spicy	-13592
▁tails	-13593
▁ulcer	-13594
inarily	-13595
issance	-13596
▁bloods	-13597
▁bounty	-13598
▁burger	-13599
▁counse	-13600
▁dental	-13601
▁dispro	-13602
▁exotic	-13603
▁glared	-13604
▁mortar	-13605
▁nearer	-13606
▁regain	-13607
▁shroud	-13608
▁solemn	-13609
▁strode	-13610
▁uncont	-13611
▁unseen	-13612
▁velvet	-13613
▁barbara	-13614
▁bravery	-13615
▁burying	-13616
▁console	-13617
▁dangers	-13618
▁deactiv	-13619
▁deflect	-13620
▁ensures	-13621
▁faintly	-13622
▁gabriel	-13623
▁millenn	-13624
▁offline	-13625
▁olympic	-13626
▁placing	-13627
▁ratings	-13628
▁reacted	-13629
▁remorse	-13630
▁russell	-13631
▁scarlet	-13632
▁scraped	-13633
▁shepher	-13634
▁stadium	-13635
▁starved	-13636
▁stirred	-13637
▁tracked	-13638
▁violate	-13639
stretched	-13640
▁addicted	-13641
▁damaging	-13642
▁deployed	-13643
▁moderate	-13644
▁overview	-13645
▁postpone	-13646
▁sneaking	-13647
▁waitress	-13648
▁admission	-13649
▁affection	-13650
▁artillery	-13651
▁detecting	-13652
▁extending	-13653
▁finishing	-13654
▁foreigner	-13655
▁fractures	-13656
▁governing	-13657
▁hurricane	-13658
▁invention	-13659
▁passports	-13660
▁subjected	-13661
▁adrenaline	-13662
▁deliveries	-13663
▁enthusiasm	-13664
▁instructed	-13665
▁overlooked	-13666
▁respective	-13667
▁appreciated	-13668
▁frantically	-13669
▁mercenaries	-13670
▁methodology	-13671
▁vaccination	-13672
▁biodiversity	-13673
▁prescription	-13674
▁notifications	-13675
▁substantially	-13676
▁reconstruction	-13677
18	-13678
19	-13679
flo	-13680
ggy	-13681
hon	-13682
nik	-13683
tel	-13684
▁''	-13685
▁wy	-13686
aire	-13687
anor	-13688
ggle	-13689
iams	-13690
iche	-13691
laim	-13692
rors	-13693
weed	-13694
zzle	-13695
▁ark	-13696
▁bak	-13697
▁gav	-13698
▁het	-13699
▁kha	-13700
▁kon	-13701
▁zer	-13702
illes	-13703
outed	-13704
utive	-13705
would	-13706
▁gull	-13707
▁heck	-13708
▁igor	-13709
▁indo	-13710
▁shin	-13711
▁stam	-13712
▁swam	-13713
▁tune	-13714
intest	-13715
ugging	-13716
ulture	-13717
▁buyer	-13718
▁crest	-13719
▁depri	-13720
▁doyle	-13721
▁gravy	-13722
▁grind	-13723
▁ledge	-13724
▁noses	-13725
▁paral	-13726
▁stamp	-13727
▁uneas	-13728
▁unfor	-13729
▁vince	-13730
athetic	-13731
itorial	-13732
▁50,000	-13733
▁chunks	-13734
▁darker	-13735
▁detain	-13736
▁digest	-13737
▁dishon	-13738
▁doomed	-13739
▁hanged	-13740
▁nicole	-13741
▁odrade	-13742
▁patric	-13743
▁ponder	-13744
▁potter	-13745
▁saints	-13746
▁socket	-13747
▁steals	-13748
▁telesc	-13749
▁thighs	-13750
▁tranqu	-13751
▁tricky	-13752
▁voters	-13753
▁warmed	-13754
attering	-13755
▁bothers	-13756
▁cheerle	-13757
▁coconut	-13758
▁forearm	-13759
▁indefin	-13760
▁insists	-13761
▁lawsuit	-13762
▁mirrors	-13763
▁psychic	-13764
▁remarks	-13765
▁scanned	-13766
▁screens	-13767
▁shaolin	-13768
▁sleeves	-13769
▁solving	-13770
▁stained	-13771
▁succumb	-13772
▁testify	-13773
▁transit	-13774
▁villain	-13775
mentioned	-13776
naissance	-13777
▁absorbed	-13778
▁analyses	-13779
▁concomit	-13780
▁consists	-13781
▁grabbing	-13782
▁maneuver	-13783
▁muscular	-13784
▁operates	-13785
▁receives	-13786
▁repealed	-13787
▁scabbard	-13788
▁secondly	-13789
▁transmit	-13790
▁underest	-13791
▁wretched	-13792
▁assembled	-13793
▁attribute	-13794
▁celestial	-13795
▁certified	-13796
▁declining	-13797
▁hazardous	-13798
▁ministers	-13799
▁offspring	-13800
▁organisms	-13801
▁overheard	-13802
▁specialty	-13803
▁torpedoes	-13804
▁committing	-13805
▁containers	-13806
▁exemptions	-13807
▁motivation	-13808
▁perception	-13809
▁presumably	-13810
▁recommends	-13811
▁translated	-13812
▁foundations	-13813
▁indications	-13814
▁specialists	-13815
▁trafficking	-13816
▁jurisdiction	-13817
▁overwhelming	-13818
▁refrigerator	-13819
▁shareholders	-13820
▁surroundings	-13821
▁participating	-13822
ao	-13823
rt	-13824
boo	-13825
kee	-13826
nia	-13827
pox	-13828
wol	-13829
▁95	-13830
▁ou	-13831
asia	-13832
auer	-13833
▁ard	-13834
▁dag	-13835
▁hav	-13836
▁jum	-13837
▁toe	-13838
birth	-13839
cross	-13840
hants	-13841
ishly	-13842
izers	-13843
overs	-13844
steps	-13845
▁axis	-13846
▁bane	-13847
▁bets	-13848
▁carb	-13849
▁cube	-13850
▁haul	-13851
▁lame	-13852
▁lull	-13853
▁nord	-13854
▁poir	-13855
▁poop	-13856
▁scum	-13857
▁wang	-13858
▁wong	-13859
acular	-13860
blower	-13861
gments	-13862
solete	-13863
system	-13864
▁algor	-13865
▁claud	-13866
▁deeds	-13867
▁digit	-13868
▁fatty	-13869
▁fount	-13870
▁grape	-13871
▁haird	-13872
▁hydra	-13873
▁julie	-13874
▁ninth	-13875
▁overt	-13876
▁paren	-13877
▁peaks	-13878
▁pengu	-13879
▁petro	-13880
▁pitch	-13881
▁quote	-13882
▁repet	-13883
▁reson	-13884
▁rigor	-13885
▁roles	-13886
▁serum	-13887
▁towel	-13888
▁accuse	-13889
▁aching	-13890
▁barbec	-13891
▁bomber	-13892
▁elders	-13893
▁emails	-13894
▁expiry	-13895
▁goblin	-13896
▁junkie	-13897
▁lashed	-13898
▁licked	-13899
▁mature	-13900
▁napole	-13901
▁oceans	-13902
▁picnic	-13903
▁prague	-13904
▁ravine	-13905
▁rocked	-13906
▁romans	-13907
▁singer	-13908
▁spying	-13909
▁tapped	-13910
▁vacant	-13911
▁vendor	-13912
▁walker	-13913
administ	-13914
ceptible	-13915
friendly	-13916
▁biology	-13917
▁dispose	-13918
▁harkonn	-13919
▁hormone	-13920
▁lasting	-13921
▁marissa	-13922
▁newborn	-13923
▁nursery	-13924
▁rubbing	-13925
▁shaving	-13926
▁virtual	-13927
astically	-13928
▁abortion	-13929
▁egyptian	-13930
▁evenings	-13931
▁explorer	-13932
▁frontier	-13933
▁graphics	-13934
▁hesitate	-13935
▁injected	-13936
▁manually	-13937
▁multiply	-13938
▁pensions	-13939
▁sabotage	-13940
▁speeding	-13941
▁sweeping	-13942
▁trembled	-13943
▁vertebra	-13944
intestinal	-13945
▁associate	-13946
▁dissolved	-13947
▁entrusted	-13948
▁ignorance	-13949
▁platforms	-13950
▁preserved	-13951
▁realistic	-13952
▁recruited	-13953
▁adaptation	-13954
▁clinically	-13955
▁courageous	-13956
▁downloaded	-13957
▁fraternity	-13958
▁occurrence	-13959
▁supportive	-13960
▁vegetation	-13961
▁medications	-13962
▁radioactive	-13963
▁entrepreneur	-13964
▁psychiatrist	-13965
▁modifications	-13966
lt	-13967
adi	-13968
bil	-13969
hwy	-13970
kyo	-13971
oft	-13972
tub	-13973
▁04	-13974
▁96	-13975
▁ht	-13976
▁oo	-13977
▁ps	-13978
▁ti	-13979
0000	-13980
blue	-13981
coat	-13982
drew	-13983
erto	-13984
etra	-13985
hari	-13986
lest	-13987
ococ	-13988
oton	-13989
rens	-13990
vell	-13991
zone	-13992
▁1.5	-13993
▁aux	-13994
▁dru	-13995
▁foe	-13996
▁hul	-13997
▁mck	-13998
▁ras	-13999
cream	-14000
ellar	-14001
exist	-14002
ggers	-14003
idesp	-14004
ulent	-14005
▁ants	-14006
▁ding	-14007
▁dual	-14008
▁hobb	-14009
▁intu	-14010
▁jill	-14011
▁lace	-14012
▁lens	-14013
▁maze	-14014
▁peep	-14015
▁quid	-14016
▁stil	-14017
▁swat	-14018
▁synt	-14019
▁temp	-14020
▁urge	-14021
marked	-14022
minded	-14023
mortem	-14024
ricate	-14025
▁capac	-14026
▁clerk	-14027
▁clone	-14028
▁crook	-14029
▁cuffs	-14030
▁eased	-14031
▁envis	-14032
▁ferry	-14033
▁hairs	-14034
▁halls	-14035
▁hards	-14036
▁hazel	-14037
▁jesse	-14038
▁miche	-14039
▁muddy	-14040
▁nicer	-14041
▁nigga	-14042
▁poked	-14043
▁pumps	-14044
▁scrib	-14045
▁tunic	-14046
▁tyler	-14047
▁vowed	-14048
▁barked	-14049
▁barney	-14050
▁campus	-14051
▁dosage	-14052
▁dreamt	-14053
▁extrem	-14054
▁hacked	-14055
▁improb	-14056
▁jackie	-14057
▁linger	-14058
▁orient	-14059
▁parker	-14060
▁pastor	-14061
▁spears	-14062
▁spikes	-14063
▁widesp	-14064
esthesia	-14065
esthetic	-14066
▁blaming	-14067
▁blossom	-14068
▁credits	-14069
▁cruelty	-14070
▁dioxide	-14071
▁georgia	-14072
▁heights	-14073
▁hissing	-14074
▁invoice	-14075
▁mansion	-14076
▁masturb	-14077
▁obscure	-14078
▁posting	-14079
▁reacher	-14080
▁renting	-14081
▁revised	-14082
▁rituals	-14083
▁shelves	-14084
▁claiming	-14085
▁countess	-14086
▁diabetes	-14087
▁dispatch	-14088
▁disposed	-14089
▁dominant	-14090
▁gleaming	-14091
▁licenses	-14092
▁neurolog	-14093
▁nitrogen	-14094
▁obsolete	-14095
▁overtime	-14096
▁panicked	-14097
▁pavement	-14098
▁validity	-14099
▁williams	-14100
▁withdrew	-14101
▁admitting	-14102
▁assurance	-14103
▁attitudes	-14104
▁criterion	-14105
▁followers	-14106
▁importing	-14107
▁musicians	-14108
▁narcotics	-14109
▁postponed	-14110
▁regulated	-14111
▁shuddered	-14112
▁strangled	-14113
▁whistling	-14114
▁allowances	-14115
▁confronted	-14116
▁disclosure	-14117
▁dispatched	-14118
▁solidarity	-14119
▁widespread	-14120
▁antibiotics	-14121
▁earthquakes	-14122
▁expressions	-14123
▁inheritance	-14124
▁intolerable	-14125
▁merchandise	-14126
▁politically	-14127
▁complications	-14128
35	-14129
39	-14130
47	-14131
ht	-14132
abe	-14133
ear	-14134
lem	-14135
mid	-14136
mus	-14137
rys	-14138
atra	-14139
gled	-14140
imir	-14141
ixon	-14142
resa	-14143
thor	-14144
uese	-14145
umpy	-14146
ythe	-14147
▁ces	-14148
▁daw	-14149
▁dex	-14150
▁irr	-14151
▁jub	-14152
▁sut	-14153
brown	-14154
dings	-14155
stage	-14156
woman	-14157
▁alib	-14158
▁anat	-14159
▁axle	-14160
▁beth	-14161
▁clip	-14162
▁duly	-14163
▁enqu	-14164
▁este	-14165
▁extr	-14166
▁gasp	-14167
▁haro	-14168
▁hect	-14169
▁mock	-14170
▁mord	-14171
▁nets	-14172
▁orth	-14173
▁rams	-14174
▁slit	-14175
▁soap	-14176
▁subt	-14177
▁toug	-14178
assium	-14179
hastly	-14180
itives	-14181
ranean	-14182
walker	-14183
▁chunk	-14184
▁decay	-14185
▁goats	-14186
▁griff	-14187
▁holog	-14188
▁kilos	-14189
▁lasts	-14190
▁maker	-14191
▁poses	-14192
▁prest	-14193
▁pulls	-14194
▁razor	-14195
▁reneg	-14196
▁slain	-14197
▁villa	-14198
forward	-14199
ificant	-14200
lasting	-14201
limited	-14202
ulative	-14203
▁advise	-14204
▁boxing	-14205
▁carton	-14206
▁chrome	-14207
▁cocked	-14208
▁comedy	-14209
▁cutter	-14210
▁erotic	-14211
▁forged	-14212
▁leaped	-14213
▁manhat	-14214
▁plugin	-14215
▁reader	-14216
▁reared	-14217
▁refers	-14218
▁revolt	-14219
▁riddle	-14220
▁sebast	-14221
▁skirts	-14222
▁sleepy	-14223
▁souven	-14224
▁throws	-14225
▁traced	-14226
otherapy	-14227
▁bureauc	-14228
▁density	-14229
▁essence	-14230
▁florida	-14231
▁ghastly	-14232
▁handful	-14233
▁pistols	-14234
▁portion	-14235
▁powered	-14236
▁proving	-14237
▁statues	-14238
▁stripes	-14239
▁surplus	-14240
▁alphabet	-14241
▁briefing	-14242
▁christop	-14243
▁corporal	-14244
▁costumes	-14245
▁currents	-14246
▁exported	-14247
▁feedback	-14248
▁heritage	-14249
▁likewise	-14250
▁noticing	-14251
▁offshore	-14252
▁periodic	-14253
▁peripher	-14254
▁snatched	-14255
▁vaccines	-14256
▁vetinari	-14257
▁warheads	-14258
▁weakened	-14259
controlled	-14260
▁australia	-14261
▁catastrop	-14262
▁classical	-14263
▁confessed	-14264
▁diarrhoea	-14265
▁kidnapper	-14266
▁labelling	-14267
▁monstrous	-14268
▁neglected	-14269
▁sephrenia	-14270
▁streaming	-14271
▁unchanged	-14272
▁varieties	-14273
▁villagers	-14274
▁coordinate	-14275
▁disrespect	-14276
▁flickering	-14277
▁inevitably	-14278
▁politician	-14279
▁portuguese	-14280
▁practicing	-14281
▁scratching	-14282
▁underlying	-14283
▁unemployed	-14284
▁citizenship	-14285
▁exaggerated	-14286
▁expectation	-14287
▁progressive	-14288
▁resignation	-14289
▁consistently	-14290
▁firefighters	-14291
▁outstretched	-14292
▁distinguished	-14293
▁harmonisation	-14294
▁traditionally	-14295
pi	-14296
avi	-14297
aze	-14298
ere	-14299
lax	-14300
obs	-14301
wax	-14302
.000	-14303
clip	-14304
drop	-14305
gone	-14306
shar	-14307
tale	-14308
ulus	-14309
▁3.2	-14310
▁bea	-14311
▁bic	-14312
▁dot	-14313
▁dow	-14314
▁hep	-14315
▁soy	-14316
block	-14317
cully	-14318
ester	-14319
▁abys	-14320
▁beak	-14321
▁carr	-14322
▁crad	-14323
▁cuba	-14324
▁dime	-14325
▁fidd	-14326
▁hose	-14327
▁jama	-14328
▁kang	-14329
▁pell	-14330
▁poem	-14331
▁tags	-14332
▁weas	-14333
americ	-14334
author	-14335
boards	-14336
onavir	-14337
secret	-14338
▁carlo	-14339
▁drone	-14340
▁guine	-14341
▁niece	-14342
▁pasta	-14343
▁repos	-14344
▁saves	-14345
▁siege	-14346
▁teddy	-14347
▁tokyo	-14348
▁uncon	-14349
ailable	-14350
igenous	-14351
orridge	-14352
ressive	-14353
▁30,000	-14354
▁audits	-14355
▁bricks	-14356
▁consec	-14357
▁convey	-14358
▁deform	-14359
▁excruc	-14360
▁giants	-14361
▁joints	-14362
▁matron	-14363
▁menace	-14364
▁mixing	-14365
▁parole	-14366
▁reboot	-14367
▁ridges	-14368
▁shovel	-14369
▁skiing	-14370
▁spinal	-14371
▁sprang	-14372
▁timely	-14373
▁untrue	-14374
▁valent	-14375
▁varies	-14376
▁violet	-14377
itations	-14378
▁adolesc	-14379
▁bruised	-14380
▁handbag	-14381
▁pasture	-14382
▁slavery	-14383
▁superst	-14384
▁tornado	-14385
▁whining	-14386
▁anderson	-14387
▁circular	-14388
▁crashing	-14389
▁crippled	-14390
▁departed	-14391
▁dickhead	-14392
▁energies	-14393
▁engulfed	-14394
▁filename	-14395
▁limiting	-14396
▁reminder	-14397
▁ridcully	-14398
▁shortage	-14399
▁spilling	-14400
▁accessing	-14401
▁briefcase	-14402
▁fireworks	-14403
▁footsteps	-14404
▁graveyard	-14405
▁hesitated	-14406
▁influenza	-14407
▁paralyzed	-14408
▁pneumonia	-14409
▁potassium	-14410
▁pressures	-14411
▁ritonavir	-14412
▁bankruptcy	-14413
▁counsellor	-14414
▁disruption	-14415
▁improbable	-14416
▁incomplete	-14417
▁influenced	-14418
▁perfection	-14419
▁questionna	-14420
▁recovering	-14421
▁satisfying	-14422
▁signatures	-14423
▁thoughtful	-14424
▁acquisition	-14425
▁compartment	-14426
▁girlfriends	-14427
▁whereabouts	-14428
▁reproduction	-14429
▁organizations	-14430
▁hallucinations	-14431
pd	-14432
wo	-14433
amo	-14434
aru	-14435
aux	-14436
dia	-14437
eye	-14438
mbh	-14439
▁ef	-14440
▁jr	-14441
asis	-14442
euro	-14443
oche	-14444
omon	-14445
rans	-14446
skin	-14447
sten	-14448
tics	-14449
uers	-14450
when	-14451
worm	-14452
▁12-	-14453
▁4.1	-14454
▁911	-14455
▁ecc	-14456
▁hou	-14457
▁lon	-14458
▁mri	-14459
▁pas	-14460
▁paw	-14461
▁pom	-14462
▁pry	-14463
▁pug	-14464
▁rak	-14465
anded	-14466
avier	-14467
ggles	-14468
grade	-14469
osing	-14470
owski	-14471
print	-14472
▁adds	-14473
▁amen	-14474
▁cind	-14475
▁cosm	-14476
▁earl	-14477
▁kitt	-14478
▁lard	-14479
▁lays	-14480
▁logs	-14481
▁peop	-14482
▁rauc	-14483
▁toby	-14484
▁tuna	-14485
akable	-14486
idable	-14487
placed	-14488
▁aaron	-14489
▁abort	-14490
▁altar	-14491
▁aroma	-14492
▁bloke	-14493
▁bruce	-14494
▁chimp	-14495
▁clues	-14496
▁corro	-14497
▁donna	-14498
▁ellen	-14499
▁grams	-14500
▁herbs	-14501
▁imbal	-14502
▁inadm	-14503
▁iraqi	-14504
▁katie	-14505
▁lumin	-14506
▁messy	-14507
▁metap	-14508
▁ornam	-14509
▁riots	-14510
▁salon	-14511
▁scorn	-14512
▁subur	-14513
▁swell	-14514
▁tones	-14515
angered	-14516
porters	-14517
▁chewed	-14518
▁gifted	-14519
▁greedy	-14520
▁intrig	-14521
▁jeremy	-14522
▁poirot	-14523
▁quiver	-14524
▁ribbon	-14525
▁spared	-14526
▁taller	-14527
▁topics	-14528
▁tribal	-14529
▁unions	-14530
isations	-14531
▁alexand	-14532
▁calcium	-14533
▁cancell	-14534
▁careers	-14535
▁dentist	-14536
▁exhibit	-14537
▁garment	-14538
▁granite	-14539
▁idiotic	-14540
▁inhaled	-14541
▁inquiry	-14542
▁microsc	-14543
▁rattled	-14544
▁reactor	-14545
▁renewal	-14546
▁resumed	-14547
▁snarled	-14548
▁taxable	-14549
▁winding	-14550
effective	-14551
stitution	-14552
▁audition	-14553
▁bruising	-14554
▁crumpled	-14555
▁designer	-14556
▁drawings	-14557
▁gardener	-14558
▁lowering	-14559
▁magnetic	-14560
▁minority	-14561
▁mourning	-14562
▁mutation	-14563
▁napoleon	-14564
▁porridge	-14565
▁protests	-14566
▁shutdown	-14567
▁weaponry	-14568
▁aluminium	-14569
▁auxiliary	-14570
▁borrowing	-14571
▁examining	-14572
▁excluding	-14573
▁manhattan	-14574
▁patiently	-14575
▁populated	-14576
▁prominent	-14577
▁protocols	-14578
▁releasing	-14579
▁scrambled	-14580
▁taxpayers	-14581
▁unlimited	-14582
▁vibration	-14583
▁analytical	-14584
▁diagnostic	-14585
▁disappoint	-14586
▁endangered	-14587
▁irrational	-14588
▁irritation	-14589
▁preventive	-14590
▁brotherhood	-14591
▁contractual	-14592
▁intravenous	-14593
▁momentarily	-14594
▁overwhelmed	-14595
▁permissions	-14596
▁termination	-14597
▁anticipation	-14598
▁celebrations	-14599
▁contaminated	-14600
▁excruciating	-14601
▁entrepreneurs	-14602
▁insignificant	-14603
▁institutional	-14604
25	-14605
80	-14606
hr	-14607
hs	-14608
iy	-14609
-10	-14610
:30	-14611
aye	-14612
eto	-14613
hum	-14614
[...]
